{
  "4": "\u0000",
  "5": "\u0001",
  "6": "\u0002",
  "7": "\u0003",
  "8": "\u0004",
  "9": "\u0005",
  "10": "\u0006",
  "11": "\u0007",
  "12": "\b",
  "13": "\t",
  "14": "\n",
  "15": "\u000b",
  "16": "\f",
  "17": "\r",
  "18": "\u000e",
  "19": "\u000f",
  "20": "\u0010",
  "21": "\u0011",
  "22": "\u0012",
  "23": "\u0013",
  "24": "\u0014",
  "25": "\u0015",
  "26": "\u0016",
  "27": "\u0017",
  "28": "\u0018",
  "29": "\u0019",
  "30": "\u001a",
  "31": "\u001b",
  "32": "\u001c",
  "33": "\u001d",
  "34": "\u001e",
  "35": "\u001f",
  "36": " ",
  "37": "!",
  "38": "\"",
  "39": "#",
  "40": "$",
  "41": "%",
  "42": "&",
  "43": "'",
  "44": "(",
  "45": ")",
  "46": "*",
  "47": "+",
  "48": ",",
  "49": "-",
  "50": ".",
  "51": "/",
  "52": "0",
  "53": "1",
  "54": "2",
  "55": "3",
  "56": "4",
  "57": "5",
  "58": "6",
  "59": "7",
  "60": "8",
  "61": "9",
  "62": ":",
  "63": ";",
  "64": "<",
  "65": "=",
  "66": ">",
  "67": "?",
  "68": "@",
  "69": "A",
  "70": "B",
  "71": "C",
  "72": "D",
  "73": "E",
  "74": "F",
  "75": "G",
  "76": "H",
  "77": "I",
  "78": "J",
  "79": "K",
  "80": "L",
  "81": "M",
  "82": "N",
  "83": "O",
  "84": "P",
  "85": "Q",
  "86": "R",
  "87": "S",
  "88": "T",
  "89": "U",
  "90": "V",
  "91": "W",
  "92": "X",
  "93": "Y",
  "94": "Z",
  "95": "[",
  "96": "\\",
  "97": "]",
  "98": "^",
  "99": "_",
  "100": "`",
  "101": "a",
  "102": "b",
  "103": "c",
  "104": "d",
  "105": "e",
  "106": "f",
  "107": "g",
  "108": "h",
  "109": "i",
  "110": "j",
  "111": "k",
  "112": "l",
  "113": "m",
  "114": "n",
  "115": "o",
  "116": "p",
  "117": "q",
  "118": "r",
  "119": "s",
  "120": "t",
  "121": "u",
  "122": "v",
  "123": "w",
  "124": "x",
  "125": "y",
  "126": "z",
  "127": "{",
  "128": "|",
  "129": "}",
  "130": "~",
  "131": "",
  "132": "80",
  "133": "81",
  "134": "82",
  "135": "83",
  "136": "84",
  "137": "85",
  "138": "86",
  "139": "87",
  "140": "88",
  "141": "89",
  "142": "8a",
  "143": "8b",
  "144": "8c",
  "145": "8d",
  "146": "8e",
  "147": "8f",
  "148": "90",
  "149": "91",
  "150": "92",
  "151": "93",
  "152": "94",
  "153": "95",
  "154": "96",
  "155": "97",
  "156": "98",
  "157": "99",
  "158": "9a",
  "159": "9b",
  "160": "9c",
  "161": "9d",
  "162": "9e",
  "163": "9f",
  "164": "a0",
  "165": "a1",
  "166": "a2",
  "167": "a3",
  "168": "a4",
  "169": "a5",
  "170": "a6",
  "171": "a7",
  "172": "a8",
  "173": "a9",
  "174": "aa",
  "175": "ab",
  "176": "ac",
  "177": "ad",
  "178": "ae",
  "179": "af",
  "180": "b0",
  "181": "b1",
  "182": "b2",
  "183": "b3",
  "184": "b4",
  "185": "b5",
  "186": "b6",
  "187": "b7",
  "188": "b8",
  "189": "b9",
  "190": "ba",
  "191": "bb",
  "192": "bc",
  "193": "bd",
  "194": "be",
  "195": "bf",
  "196": "c0",
  "197": "c1",
  "198": "c2",
  "199": "c3",
  "200": "c4",
  "201": "c5",
  "202": "c6",
  "203": "c7",
  "204": "c8",
  "205": "c9",
  "206": "ca",
  "207": "cb",
  "208": "cc",
  "209": "cd",
  "210": "ce",
  "211": "cf",
  "212": "d0",
  "213": "d1",
  "214": "d2",
  "215": "d3",
  "216": "d4",
  "217": "d5",
  "218": "d6",
  "219": "d7",
  "220": "d8",
  "221": "d9",
  "222": "da",
  "223": "db",
  "224": "dc",
  "225": "dd",
  "226": "de",
  "227": "df",
  "228": "e0",
  "229": "e1",
  "230": "e2",
  "231": "e3",
  "232": "e4",
  "233": "e5",
  "234": "e6",
  "235": "e7",
  "236": "e8",
  "237": "e9",
  "238": "ea",
  "239": "eb",
  "240": "ec",
  "241": "ed",
  "242": "ee",
  "243": "ef",
  "244": "f0",
  "245": "f1",
  "246": "f2",
  "247": "f3",
  "248": "f4",
  "249": "f5",
  "250": "f6",
  "251": "f7",
  "252": "f8",
  "253": "f9",
  "254": "fa",
  "255": "fb",
  "256": "fc",
  "257": "fd",
  "258": "fe",
  "259": "ff",
  "260": "e ",
  "261": "on",
  "262": "s ",
  "263": "th",
  "264": "in",
  "265": "er",
  "266": "ti",
  "267": "d ",
  "268": "t ",
  "269": "an",
  "270": "es",
  "271": "the ",
  "272": "ar",
  "273": "tion",
  "274": "en",
  "275": ": ",
  "276": ", ",
  "277": "or",
  "278": "y ",
  "279": "o ",
  "280": "al",
  "281": "of",
  "282": "of ",
  "283": "ed ",
  "284": "?\n",
  "285": "ues",
  "286": "tion: ",
  "287": "ha",
  "288": "Ques",
  "289": "Question: ",
  "290": "re",
  "291": "a ",
  "292": "is",
  "293": "ic",
  "294": "at",
  "295": "in ",
  "296": "ing",
  "297": "and ",
  "298": "ou",
  "299": "Question: W",
  "300": "to ",
  "301": "il",
  "302": "el",
  "303": "er ",
  "304": "ro",
  "305": "hat ",
  "306": "ing ",
  "307": ". ",
  "308": "ch",
  "309": "as ",
  "310": "is ",
  "311": "es ",
  "312": "it",
  "313": "st",
  "314": "wer",
  "315": "am",
  "316": "om",
  "317": "on ",
  "318": "al ",
  "319": "ol",
  "320": "Question: What ",
  "321": "as",
  "322": "di",
  "323": "ur",
  "324": "em",
  "325": "n ",
  "326": "?\nA",
  "327": "ac",
  "328": "ec",
  "329": "ation",
  "330": "ns",
  "331": "or ",
  "332": "an ",
  "333": "wer: ",
  "334": "nswer: ",
  "335": "?\nAnswer: ",
  "336": ".\n",
  "337": "pl",
  "338": "en ",
  "339": "ow",
  "340": "con",
  "341": "was ",
  "342": "et",
  "343": "ul",
  "344": "ent",
  "345": "ir",
  "346": "ve ",
  "347": "us",
  "348": "im",
  "349": "h ",
  "350": "at ",
  "351": "all",
  "352": "un",
  "353": "wh",
  "354": "de",
  "355": "le",
  "356": "ist",
  "357": "th ",
  "358": "of the ",
  "359": "ig",
  "360": "ver",
  "361": "ra",
  "362": "ent ",
  "363": "po",
  "364": "ma",
  "365": "um",
  "366": "?\nQuestion: What ",
  "367": "ar ",
  "368": "ag",
  "369": "com",
  "370": "ab",
  "371": "Question: Wh",
  "372": "he ",
  "373": "'s ",
  "374": "e, ",
  "375": "ri",
  "376": "tion ",
  "377": "i ",
  "378": "ed",
  "379": "for ",
  "380": "pi",
  "381": "ex",
  "382": "oc",
  "383": "ter",
  "384": "wi",
  "385": "mo",
  "386": "li",
  "387": "pro",
  "388": "s, ",
  "389": "In ",
  "390": "ation ",
  "391": "by ",
  "392": "are ",
  "393": "ser",
  "394": "ell",
  "395": "oun",
  "396": "m ",
  "397": "that ",
  "398": "for",
  "399": "ity ",
  "400": "tic",
  "401": "si",
  "402": "in the ",
  "403": "ap",
  "404": "e of ",
  "405": "su",
  "406": "the",
  "407": "du",
  "408": "to",
  "409": "\nQuestion: What ",
  "410": "ad",
  "411": "with ",
  "412": "res",
  "413": "?\nQuestion: ",
  "414": "ly ",
  "415": "par",
  "416": "op",
  "417": "did ",
  "418": "19",
  "419": "ch ",
  "420": "The ",
  "421": "what ",
  "422": "st ",
  "423": "k ",
  "424": "sh",
  "425": "ich ",
  "426": "inc",
  "427": "cont",
  "428": "20",
  "429": "be",
  "430": "ow ",
  "431": "se",
  "432": "wor",
  "433": "qu",
  "434": "fin",
  "435": "ear",
  "436": "av",
  "437": "ic ",
  "438": "de ",
  "439": "7069c3",
  "440": "più",
  "441": "più ",
  "442": "der",
  "443": "t: ",
  "444": "enc",
  "445": "s of ",
  "446": "og",
  "447": "sist",
  "448": "ther ",
  "449": "per",
  "450": "ew",
  "451": "y, ",
  "452": "il ",
  "453": "ate ",
  "454": "por",
  "455": "le ",
  "456": "ff",
  "457": "is the ",
  "458": " and ",
  "459": "it ",
  "460": "e.\n",
  "461": "?\nQuestion: Wh",
  "462": "ir ",
  "463": "no",
  "464": "p ",
  "465": "ed to ",
  "466": ", and ",
  "467": "have ",
  "468": "man",
  "469": "id",
  "470": "and",
  "471": "pr",
  "472": "ile ",
  "473": "\nQuestion: ",
  "474": "ass",
  "475": "which ",
  "476": "ish",
  "477": "amo ",
  "478": "ain",
  "479": "s and ",
  "480": "were ",
  "481": "ten",
  "482": "eg",
  "483": "da",
  "484": "fro",
  "485": "ut",
  "486": "ary ",
  "487": "ev",
  "488": "ld ",
  "489": "est",
  "490": "ect",
  "491": "lo",
  "492": "ren",
  "493": "fic",
  "494": "ran",
  "495": "vi",
  "496": "l ",
  "497": "from ",
  "498": "his ",
  "499": "est ",
  "500": "sistan",
  "501": "leg",
  "502": "duc",
  "503": "ard",
  "504": "ssistan",
  "505": "ong",
  "506": "bl",
  "507": "rec",
  "508": "pe",
  "509": "str",
  "510": "ssistant: ",
  "511": "ed by ",
  "512": "their ",
  "513": "ally ",
  "514": "s. ",
  "515": "dis",
  "516": "gi",
  "517": "has ",
  "518": "many ",
  "519": "co",
  "520": ", the ",
  "521": "tive ",
  "522": "ep",
  "523": "bo",
  "524": "all ",
  "525": "ud",
  "526": "User",
  "527": "User: ",
  "528": "Ch",
  "529": "was the ",
  "530": "we",
  "531": "do ",
  "532": "ated ",
  "533": "ore ",
  "534": "rel",
  "535": "tiv",
  "536": "ther",
  "537": "ish ",
  "538": "ell ",
  "539": "ter ",
  "540": "ome ",
  "541": "arg",
  "542": "ang",
  "543": "fac",
  "544": "ult",
  "545": "ear ",
  "546": "empl",
  "547": "iz",
  "548": "ed the ",
  "549": "be ",
  "550": "f ",
  "551": "ay",
  "552": "How ",
  "553": "ical ",
  "554": "form",
  "555": "tra",
  "556": "bu",
  "557": "rou",
  "558": "af",
  "559": "iet",
  "560": "ed in ",
  "561": "ould ",
  "562": "to the ",
  "563": "contro",
  "564": "our",
  "565": "St",
  "566": "are",
  "567": "\nQuestion: Wh",
  "568": "00",
  "569": "se ",
  "570": "rev",
  "571": "row",
  "572": "tim",
  "573": "un ",
  "574": "ll",
  "575": "ph",
  "576": "Con",
  "577": "other ",
  "578": "out ",
  "579": "cent",
  "580": "a m",
  "581": "ates ",
  "582": "gen",
  "583": "one ",
  "584": "ob",
  "585": "its ",
  "586": "go",
  "587": "es, ",
  "588": "ew ",
  "589": "not ",
  "590": "mun",
  "591": "ous ",
  "592": "uc",
  "593": "ts ",
  "594": "ame ",
  "595": "col",
  "596": "ory ",
  "597": "ount",
  "598": "min",
  "599": "Un",
  "600": "ris",
  "601": "e?\nAnswer: ",
  "602": "sel",
  "603": "ment ",
  "604": "had ",
  "605": "; ",
  "606": "this ",
  "607": "ant ",
  "608": "emb",
  "609": "18",
  "610": "\n\n",
  "611": "etto ",
  "612": "year ",
  "613": "la",
  "614": "err",
  "615": "me",
  "616": "ke ",
  "617": "sp",
  "618": "con ",
  "619": "tex",
  "620": "pu",
  "621": "tion of ",
  "622": " of ",
  "623": "sempl",
  "624": "semplic",
  "625": "Assistant: ",
  "626": "ond",
  "627": "ies ",
  "628": "bec",
  "629": "ta",
  "630": "end",
  "631": "sy",
  "632": "so ",
  "633": "cho",
  "634": "pul",
  "635": "controll",
  "636": "200",
  "637": "ton ",
  "638": "fir",
  "639": "abil",
  "640": "201",
  "641": "shi",
  "642": "igh",
  "643": ".\nQuestion: What ",
  "644": "mer",
  "645": ". A",
  "646": "arti",
  "647": "loc",
  "648": "more ",
  "649": "been ",
  "650": "ong ",
  "651": "nation",
  "652": "0 ",
  "653": "pass",
  "654": "tit",
  "655": "own ",
  "656": "ard ",
  "657": "prog",
  "658": "te",
  "659": "comp",
  "660": "ific",
  "661": "ast ",
  "662": "opl",
  "663": "iti",
  "664": "he",
  "665": "prim",
  "666": "who ",
  "667": "ure ",
  "668": "int",
  "669": "ce ",
  "670": "o, ",
  "671": "ild",
  "672": "\" ",
  "673": "der ",
  "674": "first ",
  "675": "ound ",
  "676": "peopl",
  "677": "ing the ",
  "678": "ide",
  "679": "do",
  "680": "ely ",
  "681": "ere ",
  "682": "In",
  "683": "grou",
  "684": "on the ",
  "685": "rim",
  "686": "render",
  "687": ") ",
  "688": "s are ",
  "689": "char",
  "690": "ese ",
  "691": "chool",
  "692": "ment",
  "693": "inter",
  "694": "count",
  "695": "ree ",
  "696": "?\nQuestion: In ",
  "697": "el ",
  "698": "ian ",
  "699": "popul",
  "700": "igli",
  "701": "iglior",
  "702": "Lond",
  "703": "ill",
  "704": "year",
  "705": "tw",
  "706": "Ar",
  "707": "work",
  "708": "port",
  "709": "ous",
  "710": "main ",
  "711": "um ",
  "712": "vern",
  "713": "stem",
  "714": "ia ",
  "715": "e-",
  "716": "lav",
  "717": "Al",
  "718": "e il ",
  "719": ".\nAssistant: ",
  "720": "ty",
  "721": "defin",
  "722": "mus",
  "723": "immun",
  "724": "than ",
  "725": "atten",
  "726": "did the ",
  "727": "pres",
  "728": ". T",
  "729": "stat",
  "730": "ack",
  "731": "dom",
  "732": "?\nQuestion: Who ",
  "733": "are.\n",
  "734": "olog",
  "735": "ure",
  "736": "produc",
  "737": "ric",
  "738": "ity",
  "739": "Contex",
  "740": "Context: ",
  "741": "ence ",
  "742": "tic ",
  "743": "\nQuestion: What is the ",
  "744": "ents ",
  "745": "ach ",
  "746": "aff",
  "747": "In b",
  "748": "serve ",
  "749": "a render",
  "750": "incl",
  "751": "ti ",
  "752": "e in",
  "753": "when ",
  "754": "ef",
  "755": "How many ",
  "756": "ince ",
  "757": "govern",
  "758": "ne",
  "759": ". P",
  "760": "gl",
  "761": "In brev",
  "762": "In breve, ",
  "763": "serve a render",
  "764": "serve a rendere il ",
  "765": "serve a rendere il prog",
  "766": "serve a rendere il progetto ",
  "767": "serve a rendere il progetto più ",
  "768": "serve a rendere il progetto più controll",
  "769": "serve a rendere il progetto più controllabil",
  "770": "serve a rendere il progetto più controllabile, ",
  "771": "serve a rendere il progetto più controllabile, più ",
  "772": "serve a rendere il progetto più controllabile, più leg",
  "773": "serve a rendere il progetto più controllabile, più leggi",
  "774": "serve a rendere il progetto più controllabile, più leggib",
  "775": "serve a rendere il progetto più controllabile, più leggibile ",
  "776": "serve a rendere il progetto più controllabile, più leggibile e ",
  "777": "serve a rendere il progetto più controllabile, più leggibile e più ",
  "778": "serve a rendere il progetto più controllabile, più leggibile e più fac",
  "779": "serve a rendere il progetto più controllabile, più leggibile e più facile ",
  "780": "serve a rendere il progetto più controllabile, più leggibile e più facile d",
  "781": "serve a rendere il progetto più controllabile, più leggibile e più facile da m",
  "782": "serve a rendere il progetto più controllabile, più leggibile e più facile da miglior",
  "783": "serve a rendere il progetto più controllabile, più leggibile e più facile da migliorare.\n",
  "784": "train",
  "785": "struc",
  "786": "Sou",
  "787": "bet",
  "788": "ween ",
  "789": ".\nQuestion: ",
  "790": "hi",
  "791": "fr",
  "792": "iv",
  "793": "pon",
  "794": "two ",
  "795": "compl",
  "796": "ey",
  "797": "conc",
  "798": "for the ",
  "799": "e280",
  "800": "sup",
  "801": "ay ",
  "802": "mar",
  "803": "passag",
  "804": "does ",
  "805": "use ",
  "806": "system",
  "807": "ial ",
  "808": "in 19",
  "809": "man ",
  "810": "also ",
  "811": "uring ",
  "812": "grow",
  "813": "training ",
  "814": "semplice.\n",
  "815": "us ",
  "816": "typ",
  "817": "ular ",
  "818": "between ",
  "819": "vers",
  "820": ". The ",
  "821": "cell",
  "822": "ower ",
  "823": "ever",
  "824": "ess ",
  "825": "od",
  "826": "cre",
  "827": "i in ",
  "828": "ist ",
  "829": "ily ",
  "830": "mod",
  "831": "able ",
  "832": "acter",
  "833": "ion",
  "834": "gu",
  "835": "arm",
  "836": "Har",
  "837": "ations ",
  "838": "ia",
  "839": "s, and ",
  "840": "ed a ",
  "841": "main ide",
  "842": "main idea ",
  "843": "main idea of the ",
  "844": "main idea of the passag",
  "845": ". In ",
  "846": "made ",
  "847": "?\nQuestion: When ",
  "848": "org",
  "849": "ath",
  "850": "ton",
  "851": "sec",
  "852": "cl",
  "853": "fe",
  "854": "ato ",
  "855": "un t",
  "856": "Amer",
  "857": "Americ",
  "858": "cri",
  "859": "pos",
  "860": "main idea of the passage?\nAnswer: ",
  "861": "can ",
  "862": "ot",
  "863": "ited ",
  "864": "ers ",
  "865": "pre",
  "866": "bel",
  "867": "En",
  "868": "cas",
  "869": "chec",
  "870": "ds ",
  "871": "dat",
  "872": "land",
  "873": "gh",
  "874": "et ",
  "875": "dev",
  "876": "s?\nAnswer: ",
  "877": "city ",
  "878": "group",
  "879": "e ver",
  "880": "e verific",
  "881": "S ",
  "882": "Cer",
  "883": "'ob",
  "884": "'obiet",
  "885": "'obiettiv",
  "886": "'obiettivo, ",
  "887": "i da",
  "888": "after ",
  "889": ". S",
  "890": "bur",
  "891": "des",
  "892": "maj",
  "893": "ad ",
  "894": "num",
  "895": "up",
  "896": "conf",
  "897": "ign",
  "898": "oll",
  "899": "with the ",
  "900": " b",
  "901": "ine ",
  "902": "Certo",
  "903": "Certo. P",
  "904": "Certo. Parti",
  "905": "Certo. Partiamo ",
  "906": "Certo. Partiamo d",
  "907": "Certo. Partiamo dall",
  "908": "Certo. Partiamo dall'obiettivo, ",
  "909": "Certo. Partiamo dall'obiettivo, po",
  "910": "Certo. Partiamo dall'obiettivo, poi ",
  "911": "Certo. Partiamo dall'obiettivo, poi gu",
  "912": "Certo. Partiamo dall'obiettivo, poi guar",
  "913": "Certo. Partiamo dall'obiettivo, poi guardi",
  "914": "Certo. Partiamo dall'obiettivo, poi guardiamo ",
  "915": "Certo. Partiamo dall'obiettivo, poi guardiamo i da",
  "916": "Certo. Partiamo dall'obiettivo, poi guardiamo i dati ",
  "917": "Certo. Partiamo dall'obiettivo, poi guardiamo i dati e in",
  "918": "Certo. Partiamo dall'obiettivo, poi guardiamo i dati e infin",
  "919": "Certo. Partiamo dall'obiettivo, poi guardiamo i dati e infine verific",
  "920": "Certo. Partiamo dall'obiettivo, poi guardiamo i dati e infine verifichi",
  "921": "Certo. Partiamo dall'obiettivo, poi guardiamo i dati e infine verifichiamo ",
  "922": "Certo. Partiamo dall'obiettivo, poi guardiamo i dati e infine verifichiamo il ",
  "923": "Certo. Partiamo dall'obiettivo, poi guardiamo i dati e infine verifichiamo il ris",
  "924": "Certo. Partiamo dall'obiettivo, poi guardiamo i dati e infine verifichiamo il risult",
  "925": "Certo. Partiamo dall'obiettivo, poi guardiamo i dati e infine verifichiamo il risultato ",
  "926": "Certo. Partiamo dall'obiettivo, poi guardiamo i dati e infine verifichiamo il risultato con ",
  "927": "Certo. Partiamo dall'obiettivo, poi guardiamo i dati e infine verifichiamo il risultato con un t",
  "928": "Certo. Partiamo dall'obiettivo, poi guardiamo i dati e infine verifichiamo il risultato con un test ",
  "929": "Certo. Partiamo dall'obiettivo, poi guardiamo i dati e infine verifichiamo il risultato con un test semplice.\n",
  "930": "urr",
  "931": ". I",
  "932": "oy",
  "933": "up ",
  "934": "es of ",
  "935": "kn",
  "936": "ry ",
  "937": "ess",
  "938": ". B",
  "939": "t of ",
  "940": "such ",
  "941": "radi",
  "942": "check",
  "943": "point",
  "944": "od ",
  "945": "a s",
  "946": "word ",
  "947": "di ",
  "948": "?\nQuestion: In what ",
  "949": "es and ",
  "950": "relig",
  "951": "stud",
  "952": "hel",
  "953": "dist",
  "954": "ite ",
  "955": "ach",
  "956": "ding ",
  "957": ". H",
  "958": "into ",
  "959": "most ",
  "960": "ed for ",
  "961": "publ",
  "962": "ber",
  "963": "tur",
  "964": "ious ",
  "965": "minist",
  "966": "ten ",
  "967": "gh ",
  "968": "due ",
  "969": "ill ",
  "970": "als ",
  "971": "self",
  "972": "ak",
  "973": "tun",
  "974": "ual ",
  "975": "ation, ",
  "976": ".\nAssistant: In breve, ",
  "977": "nam",
  "978": "Pr",
  "979": "serv",
  "980": "character",
  "981": "build",
  "982": "ho",
  "983": "Kerr",
  "984": "De",
  "985": "Wh",
  "986": "eff",
  "987": ".\nQuestion: Wh",
  "988": "some ",
  "989": "tal",
  "990": "ke",
  "991": "would ",
  "992": "larg",
  "993": "pan",
  "994": "self-",
  "995": "ens",
  "996": "ateg",
  "997": "aint",
  "998": "sc",
  "999": "sts ",
  "1000": "ram",
  "1001": "tis",
  "1002": "New ",
  "1003": "is a ",
  "1004": "age ",
  "1005": "bre",
  "1006": "tok",
  "1007": "amp",
  "1008": "anc",
  "1009": "mon",
  "1010": "about ",
  "1011": "ai",
  "1012": "olu",
  "1013": ".\n\n",
  "1014": "liam",
  "1015": "call",
  "1016": "e in ",
  "1017": "dep",
  "1018": "mi",
  "1019": "?\nAssistant: ",
  "1020": "like ",
  "1021": "é",
  "1022": "they ",
  "1023": "ib",
  "1024": "s?\nQuestion: What ",
  "1025": "sim",
  "1026": "reas",
  "1027": "ub",
  "1028": "ion ",
  "1029": "dition",
  "1030": "ca",
  "1031": "ing of ",
  "1032": "inf",
  "1033": "s in ",
  "1034": "spec",
  "1035": "chur",
  "1036": "rele",
  "1037": "school",
  "1038": "respon",
  "1039": "pol",
  "1040": "y of ",
  "1041": ", which ",
  "1042": "y?\nAnswer: ",
  "1043": "attention ",
  "1044": "\nQuestion: Who ",
  "1045": "gre",
  "1046": "Sy",
  "1047": "Gen",
  "1048": "import",
  "1049": "disc",
  "1050": "Min",
  "1051": "1 ",
  "1052": "att",
  "1053": "\nQuestion: What is the main idea of the passage?\nAnswer: ",
  "1054": "s the ",
  "1055": "her ",
  "1056": "ight ",
  "1057": "Engl",
  "1058": "lang",
  "1059": "langu",
  "1060": "3 ",
  "1061": "ation of ",
  "1062": "fine-",
  "1063": "fine-tun",
  "1064": "ative ",
  "1065": "used to ",
  "1066": "val",
  "1067": "tran",
  "1068": "trans",
  "1069": "Fren",
  "1070": "fam",
  "1071": "sion",
  "1072": "ating ",
  "1073": "devel",
  "1074": "develop",
  "1075": "plan",
  "1076": "Bri",
  "1077": "on-",
  "1078": "ivers",
  "1079": "feat",
  "1080": "Col",
  "1081": "An",
  "1082": "she ",
  "1083": "Chin",
  "1084": "aw",
  "1085": "plac",
  "1086": "5 ",
  "1087": "by the ",
  "1088": "ref",
  "1089": "again",
  "1090": "state ",
  "1091": "dec",
  "1092": "cons",
  "1093": "7 ",
  "1094": "such as ",
  "1095": "ail",
  "1096": "known ",
  "1097": "includ",
  "1098": "fi",
  "1099": "Spi",
  "1100": "Spieg",
  "1101": "during ",
  "1102": "lear ",
  "1103": "ity and ",
  "1104": "as the ",
  "1105": "var",
  "1106": "tr",
  "1107": "ity of ",
  "1108": "ship ",
  "1109": "hat",
  "1110": "memb",
  "1111": "bir",
  "1112": "London ",
  "1113": "should ",
  "1114": "alb",
  "1115": "irma",
  "1116": "action ",
  "1117": "argum",
  "1118": "immune ",
  "1119": "Sam",
  "1120": "Samo",
  "1121": "ded",
  "1122": "under ",
  "1123": "lin",
  "1124": "national ",
  "1125": "offic",
  "1126": "publish",
  "1127": "day ",
  "1128": ". It ",
  "1129": "?\nAnswer: the ",
  "1130": "ember ",
  "1131": "with",
  "1132": "'t ",
  "1133": "ly",
  "1134": "as a ",
  "1135": "lim",
  "1136": "enti",
  "1137": "each ",
  "1138": "art",
  "1139": "eral ",
  "1140": "modo ",
  "1141": "er, ",
  "1142": "beg",
  "1143": "ber ",
  "1144": "Fran",
  "1145": "sib",
  "1146": "a, ",
  "1147": "vis",
  "1148": "new",
  "1149": "defini",
  "1150": "eyn",
  "1151": "Bap",
  "1152": "Bapti",
  "1153": "A ",
  "1154": "releas",
  "1155": "Ri",
  "1156": "new ",
  "1157": "' ",
  "1158": "Bar",
  "1159": "AC",
  "1160": "own",
  "1161": "ement",
  "1162": "ept",
  "1163": "ship",
  "1164": "that the ",
  "1165": ",00",
  "1166": "out",
  "1167": "against ",
  "1168": "lat",
  "1169": "tions ",
  "1170": "prime ",
  "1171": "prime minist",
  "1172": "son ",
  "1173": "ack ",
  "1174": "act",
  "1175": "but ",
  "1176": "depend",
  "1177": "Jew",
  "1178": "rop",
  "1179": "indi",
  "1180": "from the ",
  "1181": "yth",
  "1182": "log",
  "1183": "ed by the ",
  "1184": "?\nQuestion: Which ",
  "1185": "ffer",
  "1186": "self-attention ",
  "1187": "comm",
  "1188": "well ",
  "1189": "off",
  "1190": "ded ",
  "1191": "istor",
  "1192": "non-",
  "1193": "mov",
  "1194": "ind",
  "1195": "unc",
  "1196": "Feyn",
  "1197": "church",
  "1198": "to be ",
  "1199": "ie",
  "1200": "ism ",
  "1201": "Fam",
  "1202": "gam",
  "1203": "?\nAssistant: Certo. Partiamo dall'obiettivo, poi guardiamo i dati e infine verifichiamo il risultato con un test semplice.\n",
  "1204": "assum",
  "1205": "on's ",
  "1206": "ociet",
  "1207": "?\nQuestion: In what year ",
  "1208": "being ",
  "1209": "affirma",
  "1210": "affirmative ",
  "1211": "time ",
  "1212": "ks ",
  "1213": "t AC",
  "1214": "too ",
  "1215": "ale ",
  "1216": "part",
  "1217": "igh ",
  "1218": "ore",
  "1219": "ine",
  "1220": "power ",
  "1221": "reg",
  "1222": "port ",
  "1223": "important ",
  "1224": "bro",
  "1225": "people ",
  "1226": "government ",
  "1227": "may ",
  "1228": "\nQuestion: In ",
  "1229": "often ",
  "1230": "United ",
  "1231": "ough ",
  "1232": "ed to the ",
  "1233": "pri",
  "1234": "los",
  "1235": "mean",
  "1236": "Span",
  "1237": "organ",
  "1238": "?\nQuestion: How many ",
  "1239": "ast",
  "1240": "American ",
  "1241": "population ",
  "1242": "checkpoint",
  "1243": "hard",
  "1244": "test",
  "1245": "centur",
  "1246": "g ",
  "1247": "ance ",
  "1248": "chang",
  "1249": "ult ",
  "1250": "at the ",
  "1251": "increas",
  "1252": "religious ",
  "1253": "ity, ",
  "1254": "arn",
  "1255": "ites ",
  "1256": "foll",
  "1257": "Mar",
  "1258": "end ",
  "1259": "Feynman ",
  "1260": "sof",
  "1261": "Ph",
  "1262": "Riassum",
  "1263": "fras",
  "1264": "type of ",
  "1265": "area ",
  "1266": "ected ",
  "1267": "ei",
  "1268": "eas",
  "1269": "code ",
  "1270": "y's ",
  "1271": "s in the ",
  "1272": "ized ",
  "1273": "I ",
  "1274": "ul ",
  "1275": "ov",
  "1276": "liv",
  "1277": "?\nThe ",
  "1278": "posi",
  "1279": "diss",
  "1280": ", re",
  "1281": "self ",
  "1282": ", what ",
  "1283": "became ",
  "1284": "ant",
  "1285": "three ",
  "1286": "free ",
  "1287": "ld",
  "1288": "an E",
  "1289": "ately ",
  "1290": "ice ",
  "1291": "ogn",
  "1292": "abl",
  "1293": "Eu",
  "1294": "serve a rendere il progetto più controllabile, più leggibile e più facile da migliorare.\n\n",
  "1295": "Indi",
  "1296": "local ",
  "1297": "data ",
  "1298": "consist",
  "1299": "inn",
  "1300": "French ",
  "1301": "Ital",
  "1302": "fo",
  "1303": "used ",
  "1304": "sion ",
  "1305": "cap",
  "1306": "e qu",
  "1307": "ani",
  "1308": "Com",
  "1309": "any ",
  "1310": "hal",
  "1311": "?\nQuestion: What is the ",
  "1312": "doc",
  "1313": "Phil",
  "1314": "cell ",
  "1315": "User: Riassum",
  "1316": "User: Riassumi in ",
  "1317": "User: Riassumi in due ",
  "1318": "User: Riassumi in due fras",
  "1319": "User: Riassumi in due frasi ",
  "1320": "User: Riassumi in due frasi il ",
  "1321": "User: Riassumi in due frasi il conc",
  "1322": "User: Riassumi in due frasi il concetto ",
  "1323": "User: Riassumi in due frasi il concetto di ",
  "1324": "ociety ",
  "1325": "air ",
  "1326": "Colleg",
  "1327": "ros",
  "1328": "ue ",
  "1329": "affirmative action ",
  "1330": "school ",
  "1331": "Br",
  "1332": "School",
  "1333": "mb",
  "1334": "immune system",
  "1335": "L ",
  "1336": "t AC ",
  "1337": "sl",
  "1338": "ans ",
  "1339": "oh",
  "1340": "eng",
  "1341": "ques",
  "1342": "dem",
  "1343": "Au",
  "1344": "hous",
  "1345": "parliam",
  "1346": "dern ",
  "1347": "hap",
  "1348": "name ",
  "1349": "since ",
  "1350": "os",
  "1351": "term ",
  "1352": "til ",
  "1353": "Wor",
  "1354": "War ",
  "1355": "ain ",
  "1356": "ose ",
  "1357": "occ",
  "1358": "coll",
  "1359": "bas",
  "1360": "Ac",
  "1361": "ound",
  "1362": "User: Spieg",
  "1363": "User: Spiegam",
  "1364": "User: Spiegami in ",
  "1365": "User: Spiegami in modo ",
  "1366": "User: Spiegami in modo semplic",
  "1367": "User: Spiegami in modo semplice ",
  "1368": "chn",
  "1369": "M ",
  "1370": "clear ",
  "1371": "mall ",
  "1372": "complex",
  "1373": "number ",
  "1374": "au",
  "1375": "ong with ",
  "1376": "te ",
  "1377": "Britis",
  "1378": "British ",
  "1379": "lem",
  "1380": "characteris",
  "1381": "eth",
  "1382": "nic",
  "1383": "tradition",
  "1384": "Can",
  "1385": "gra",
  "1386": "am ",
  "1387": "music ",
  "1388": "Nor",
  "1389": "Univers",
  "1390": "South",
  "1391": "token",
  "1392": "sti",
  "1393": "ys",
  "1394": "what",
  "1395": "adel",
  "1396": "ism",
  "1397": "eiv",
  "1398": "è",
  "1399": "o s",
  "1400": "mach",
  "1401": "building",
  "1402": "), ",
  "1403": "ed in the ",
  "1404": "Char",
  "1405": "inv",
  "1406": "discrim",
  "1407": "discrimin",
  "1408": "?\nQuestion: How ",
  "1409": "sub",
  "1410": "deb",
  "1411": "domes",
  "1412": "early ",
  "1413": "ret",
  "1414": "years ",
  "1415": "Pol",
  "1416": "y M",
  "1417": "2014",
  "1418": "ed, ",
  "1419": "Kerry ",
  "1420": "kin",
  "1421": "king ",
  "1422": "olin",
  "1423": "ed on ",
  "1424": "every ",
  "1425": "major ",
  "1426": "issu",
  "1427": "–",
  "1428": "ash",
  "1429": "could ",
  "1430": "don",
  "1431": "tre",
  "1432": "ge",
  "1433": "separ",
  "1434": "does the ",
  "1435": "er and ",
  "1436": "modern ",
  "1437": "King",
  "1438": "?\nQuestion: The ",
  "1439": "bod",
  "1440": "ep ",
  "1441": "major",
  "1442": "the R",
  "1443": "while ",
  "1444": "ond ",
  "1445": "ategory ",
  "1446": "ude ",
  "1447": "ause ",
  "1448": "able",
  "1449": "ible",
  "1450": ". A ",
  "1451": "recor",
  "1452": "uses ",
  "1453": "When ",
  "1454": "transform",
  "1455": "sider",
  "1456": "ages ",
  "1457": "Italian ",
  "1458": "simil",
  "1459": "differ",
  "1460": "\" and ",
  "1461": "met",
  "1462": "urani",
  "1463": "uranium ",
  "1464": "act ",
  "1465": ". This ",
  "1466": "bour",
  "1467": "ienc",
  "1468": "as well ",
  "1469": "rag",
  "1470": "Ric",
  "1471": "hard ",
  "1472": "Wil",
  "1473": "ict",
  "1474": "histor",
  "1475": "around ",
  "1476": "marri",
  "1477": "anti",
  "1478": "have been ",
  "1479": "s (",
  "1480": "lu",
  "1481": "fore ",
  "1482": "emor",
  "1483": "ok ",
  "1484": "them",
  "1485": "Philadel",
  "1486": "Philadelph",
  "1487": "NE",
  "1488": "inst",
  "1489": "a con ",
  "1490": "machine ",
  "1491": "learn",
  "1492": "cot",
  "1493": "Southamp",
  "1494": "Ge",
  "1495": "oci",
  "1496": "long ",
  "1497": "lab",
  "1498": "domestic",
  "1499": "Saint",
  "1500": "Barth",
  "1501": "casin",
  "1502": "State ",
  "1503": "cor",
  "1504": "how ",
  "1505": "become ",
  "1506": "over",
  "1507": "on, ",
  "1508": "ester",
  "1509": "proc",
  "1510": "very ",
  "1511": ",000 ",
  "1512": "ident ",
  "1513": "y, and ",
  "1514": "ted ",
  "1515": "a's ",
  "1516": "take ",
  "1517": "hou",
  "1518": "e?\nQuestion: What ",
  "1519": "olution",
  "1520": "to re",
  "1521": "empor",
  "1522": "alu",
  "1523": "Jul",
  "1524": "age of ",
  "1525": "Car",
  "1526": "only ",
  "1527": "until ",
  "1528": "independ",
  "1529": "08",
  "1530": "illi",
  "1531": "air",
  "1532": "ries ",
  "1533": "y and ",
  "1534": "ablish",
  "1535": "\nQuestion: When ",
  "1536": "ing, ",
  "1537": "play",
  "1538": "include ",
  "1539": "United St",
  "1540": "ates",
  "1541": "raf",
  "1542": "ios",
  "1543": "Mini",
  "1544": "MiniL",
  "1545": "MiniLL",
  "1546": "t is ",
  "1547": "saf",
  "1548": "hardw",
  "1549": "consistent ",
  "1550": "th centur",
  "1551": "Princ",
  "1552": "consider",
  "1553": "relation",
  "1554": "those ",
  "1555": "ne ",
  "1556": "ed and ",
  "1557": "ed with ",
  "1558": "ational ",
  "1559": ") and ",
  "1560": "tl",
  "1561": "ital ",
  "1562": "one of the ",
  "1563": "itic",
  "1564": "10",
  "1565": "where ",
  "1566": "br",
  "1567": "Gre",
  "1568": "\nQuestion: The ",
  "1569": "her",
  "1570": "poin",
  "1571": "point ",
  "1572": "perc",
  "1573": "User: Q",
  "1574": "User: Qual ",
  "1575": "User: Qual è",
  "1576": "User: Qual è ",
  "1577": "User: Qual è un ",
  "1578": "User: Qual è un err",
  "1579": "User: Qual è un errore ",
  "1580": "User: Qual è un errore com",
  "1581": "User: Qual è un errore comun",
  "1582": "User: Qual è un errore comune qu",
  "1583": "User: Qual è un errore comune quand",
  "1584": "User: Qual è un errore comune quando s",
  "1585": "User: Qual è un errore comune quando si ",
  "1586": "User: Qual è un errore comune quando si lav",
  "1587": "User: Qual è un errore comune quando si lavor",
  "1588": "User: Qual è un errore comune quando si lavora con ",
  "1589": "machine learn",
  "1590": "machine learning",
  "1591": "su ",
  "1592": "ural ",
  "1593": "sk",
  "1594": "seas",
  "1595": ". M",
  "1596": "album ",
  "1597": "farm",
  "1598": "sible ",
  "1599": "receiv",
  "1600": "Georg",
  "1601": "George ",
  "1602": "forc",
  "1603": "people of ",
  "1604": "bra",
  "1605": "lic",
  "1606": "Saint-",
  "1607": "élem",
  "1608": "Eton",
  "1609": "FL ",
  "1610": "Net",
  "1611": "broad",
  "1612": "Dell ",
  "1613": "employ",
  "1614": "owever",
  "1615": "owever, ",
  "1616": "found ",
  "1617": "high ",
  "1618": "appro",
  "1619": "ings ",
  "1620": "Sec",
  "1621": "another ",
  "1622": "term",
  "1623": "ies of ",
  "1624": ".\nQuestion: Who ",
  "1625": "s\nQuestion: What ",
  "1626": "d of ",
  "1627": "ectiv",
  "1628": "both ",
  "1629": "e, and ",
  "1630": "support ",
  "1631": "over ",
  "1632": "\nQuestion: How many ",
  "1633": "9 ",
  "1634": "commun",
  "1635": "crip",
  "1636": "sen",
  "1637": "ussi",
  "1638": "ement ",
  "1639": "plic",
  "1640": "ven",
  "1641": ". O",
  "1642": "ounc",
  "1643": "per ",
  "1644": "es\nQuestion: What ",
  "1645": "s to ",
  "1646": "ually ",
  "1647": "olv",
  "1648": "Kingdom",
  "1649": "ampl",
  "1650": "gran",
  "1651": "Spanish ",
  "1652": "there ",
  "1653": "states ",
  "1654": "an Em",
  "1655": "pire",
  "1656": ". D",
  "1657": "recogn",
  "1658": "Jewish ",
  "1659": "User: C",
  "1660": "fine-tuning ",
  "1661": "rib",
  "1662": "orig",
  "1663": "origin",
  "1664": "% of ",
  "1665": "chnical ",
  "1666": "keep ",
  "1667": "e on ",
  "1668": "good ",
  "1669": "impl",
  "1670": "igur",
  "1671": "s, s",
  "1672": "valid",
  "1673": "beha",
  "1674": "behavi",
  "1675": "are more ",
  "1676": "early",
  "1677": "therland",
  "1678": "king",
  "1679": "Euro",
  "1680": "Europe",
  "1681": "Rom",
  "1682": "e?\n",
  "1683": "similar ",
  "1684": "es are ",
  "1685": "in a ",
  "1686": "Along with ",
  "1687": "National ",
  "1688": "ator",
  "1689": "195",
  "1690": "our ",
  "1691": "s were ",
  "1692": "Mel",
  "1693": "Melbour",
  "1694": "development ",
  "1695": "South ",
  "1696": "ue",
  "1697": "largest ",
  "1698": "characteristic",
  "1699": "because ",
  "1700": "He",
  "1701": "child",
  "1702": "ever ",
  "1703": "mix",
  "1704": "throu",
  "1705": "8 ",
  "1706": "ugh",
  "1707": "Th",
  "1708": "them ",
  "1709": "as well as ",
  "1710": "giv",
  "1711": "group ",
  "1712": "som",
  "1713": "a and ",
  "1714": "ports ",
  "1715": "cer",
  "1716": "mi ",
  "1717": "mi un ",
  "1718": "nor",
  "1719": "distric",
  "1720": "Li",
  "1721": "follow",
  "1722": "Vir",
  "1723": "Sing",
  "1724": "ster",
  "1725": "en to ",
  "1726": "compens",
  "1727": "whites ",
  "1728": "Bo",
  "1729": "BY",
  "1730": "arily ",
  "1731": "Harff",
  "1732": "Mus",
  "1733": "brain ",
  "1734": "194",
  "1735": "Saint-Barth",
  "1736": "adult ",
  "1737": "196",
  "1738": "soft AC ",
  "1739": "CB",
  "1740": "titular ",
  "1741": "Cub",
  "1742": "qua",
  "1743": "quail ",
  "1744": "mu",
  "1745": "fter ",
  "1746": "contin",
  "1747": "az",
  "1748": "chol",
  "1749": "cholar",
  "1750": "peri",
  "1751": "oper",
  "1752": "defic",
  "1753": "ey ",
  "1754": "op ",
  "1755": "aid ",
  "1756": "jus",
  "1757": ". F",
  "1758": "Syri",
  "1759": "partic",
  "1760": "app",
  "1761": "gr",
  "1762": "sing",
  "1763": "This ",
  "1764": "dest",
  "1765": "ister ",
  "1766": "work ",
  "1767": "large ",
  "1768": "ick",
  "1769": "government",
  "1770": "ector",
  "1771": "head ",
  "1772": "quir",
  "1773": "emp",
  "1774": "areas",
  "1775": "titu",
  "1776": "2 ",
  "1777": "ave ",
  "1778": "lost ",
  "1779": "exp",
  "1780": "es the ",
  "1781": "sign",
  "1782": "English ",
  "1783": "world",
  "1784": "illion ",
  "1785": "s. The ",
  "1786": "World ",
  "1787": "establish",
  "1788": "ubl",
  "1789": "s.\nQuestion: What ",
  "1790": "ed?\nQuestion: What ",
  "1791": "nel ",
  "1792": "cha",
  "1793": "a M",
  "1794": "ed?\nAnswer: ",
  "1795": "art ",
  "1796": "artists ",
  "1797": "prac",
  "1798": "practic",
  "1799": "population",
  "1800": "Te",
  "1801": "Technical ",
  "1802": "Technical no",
  "1803": "Technical note",
  "1804": "Technical note: ",
  "1805": "MiniLLM ",
  "1806": "MiniLLM this ",
  "1807": "MiniLLM this conc",
  "1808": "MiniLLM this concep",
  "1809": "MiniLLM this concept is ",
  "1810": "MiniLLM this concept is used to ",
  "1811": "MiniLLM this concept is used to keep ",
  "1812": "MiniLLM this concept is used to keep local ",
  "1813": "MiniLLM this concept is used to keep local training ",
  "1814": "MiniLLM this concept is used to keep local training me",
  "1815": "MiniLLM this concept is used to keep local training meas",
  "1816": "MiniLLM this concept is used to keep local training measur",
  "1817": "MiniLLM this concept is used to keep local training measurable",
  "1818": "MiniLLM this concept is used to keep local training measurable, re",
  "1819": "MiniLLM this concept is used to keep local training measurable, reproduc",
  "1820": "MiniLLM this concept is used to keep local training measurable, reproducible",
  "1821": "MiniLLM this concept is used to keep local training measurable, reproducible, and ",
  "1822": "MiniLLM this concept is used to keep local training measurable, reproducible, and saf",
  "1823": "MiniLLM this concept is used to keep local training measurable, reproducible, and safe on ",
  "1824": "MiniLLM this concept is used to keep local training measurable, reproducible, and safe on cons",
  "1825": "MiniLLM this concept is used to keep local training measurable, reproducible, and safe on consum",
  "1826": "MiniLLM this concept is used to keep local training measurable, reproducible, and safe on consumer ",
  "1827": "MiniLLM this concept is used to keep local training measurable, reproducible, and safe on consumer hardw",
  "1828": "MiniLLM this concept is used to keep local training measurable, reproducible, and safe on consumer hardware",
  "1829": "MiniLLM this concept is used to keep local training measurable, reproducible, and safe on consumer hardware. A ",
  "1830": "MiniLLM this concept is used to keep local training measurable, reproducible, and safe on consumer hardware. A good ",
  "1831": "MiniLLM this concept is used to keep local training measurable, reproducible, and safe on consumer hardware. A good impl",
  "1832": "MiniLLM this concept is used to keep local training measurable, reproducible, and safe on consumer hardware. A good implement",
  "1833": "MiniLLM this concept is used to keep local training measurable, reproducible, and safe on consumer hardware. A good implementation ",
  "1834": "MiniLLM this concept is used to keep local training measurable, reproducible, and safe on consumer hardware. A good implementation recor",
  "1835": "MiniLLM this concept is used to keep local training measurable, reproducible, and safe on consumer hardware. A good implementation records ",
  "1836": "MiniLLM this concept is used to keep local training measurable, reproducible, and safe on consumer hardware. A good implementation records conf",
  "1837": "MiniLLM this concept is used to keep local training measurable, reproducible, and safe on consumer hardware. A good implementation records configur",
  "1838": "MiniLLM this concept is used to keep local training measurable, reproducible, and safe on consumer hardware. A good implementation records configuration, ",
  "1839": "MiniLLM this concept is used to keep local training measurable, reproducible, and safe on consumer hardware. A good implementation records configuration, uses ",
  "1840": "MiniLLM this concept is used to keep local training measurable, reproducible, and safe on consumer hardware. A good implementation records configuration, uses clear ",
  "1841": "MiniLLM this concept is used to keep local training measurable, reproducible, and safe on consumer hardware. A good implementation records configuration, uses clear log",
  "1842": "MiniLLM this concept is used to keep local training measurable, reproducible, and safe on consumer hardware. A good implementation records configuration, uses clear logs, s",
  "1843": "MiniLLM this concept is used to keep local training measurable, reproducible, and safe on consumer hardware. A good implementation records configuration, uses clear logs, sav",
  "1844": "MiniLLM this concept is used to keep local training measurable, reproducible, and safe on consumer hardware. A good implementation records configuration, uses clear logs, saves ",
  "1845": "MiniLLM this concept is used to keep local training measurable, reproducible, and safe on consumer hardware. A good implementation records configuration, uses clear logs, saves checkpoint",
  "1846": "MiniLLM this concept is used to keep local training measurable, reproducible, and safe on consumer hardware. A good implementation records configuration, uses clear logs, saves checkpoints, and ",
  "1847": "MiniLLM this concept is used to keep local training measurable, reproducible, and safe on consumer hardware. A good implementation records configuration, uses clear logs, saves checkpoints, and valid",
  "1848": "MiniLLM this concept is used to keep local training measurable, reproducible, and safe on consumer hardware. A good implementation records configuration, uses clear logs, saves checkpoints, and validates ",
  "1849": "MiniLLM this concept is used to keep local training measurable, reproducible, and safe on consumer hardware. A good implementation records configuration, uses clear logs, saves checkpoints, and validates behavi",
  "1850": "MiniLLM this concept is used to keep local training measurable, reproducible, and safe on consumer hardware. A good implementation records configuration, uses clear logs, saves checkpoints, and validates behavior ",
  "1851": "MiniLLM this concept is used to keep local training measurable, reproducible, and safe on consumer hardware. A good implementation records configuration, uses clear logs, saves checkpoints, and validates behavior with ",
  "1852": "MiniLLM this concept is used to keep local training measurable, reproducible, and safe on consumer hardware. A good implementation records configuration, uses clear logs, saves checkpoints, and validates behavior with test",
  "1853": "MiniLLM this concept is used to keep local training measurable, reproducible, and safe on consumer hardware. A good implementation records configuration, uses clear logs, saves checkpoints, and validates behavior with tests. ",
  "1854": "MiniLLM this concept is used to keep local training measurable, reproducible, and safe on consumer hardware. A good implementation records configuration, uses clear logs, saves checkpoints, and validates behavior with tests. When ",
  "1855": "MiniLLM this concept is used to keep local training measurable, reproducible, and safe on consumer hardware. A good implementation records configuration, uses clear logs, saves checkpoints, and validates behavior with tests. When training ",
  "1856": "MiniLLM this concept is used to keep local training measurable, reproducible, and safe on consumer hardware. A good implementation records configuration, uses clear logs, saves checkpoints, and validates behavior with tests. When training a s",
  "1857": "MiniLLM this concept is used to keep local training measurable, reproducible, and safe on consumer hardware. A good implementation records configuration, uses clear logs, saves checkpoints, and validates behavior with tests. When training a small ",
  "1858": "MiniLLM this concept is used to keep local training measurable, reproducible, and safe on consumer hardware. A good implementation records configuration, uses clear logs, saves checkpoints, and validates behavior with tests. When training a small transform",
  "1859": "MiniLLM this concept is used to keep local training measurable, reproducible, and safe on consumer hardware. A good implementation records configuration, uses clear logs, saves checkpoints, and validates behavior with tests. When training a small transformer, ",
  "1860": "MiniLLM this concept is used to keep local training measurable, reproducible, and safe on consumer hardware. A good implementation records configuration, uses clear logs, saves checkpoints, and validates behavior with tests. When training a small transformer, data ",
  "1861": "MiniLLM this concept is used to keep local training measurable, reproducible, and safe on consumer hardware. A good implementation records configuration, uses clear logs, saves checkpoints, and validates behavior with tests. When training a small transformer, data qu",
  "1862": "MiniLLM this concept is used to keep local training measurable, reproducible, and safe on consumer hardware. A good implementation records configuration, uses clear logs, saves checkpoints, and validates behavior with tests. When training a small transformer, data qual",
  "1863": "MiniLLM this concept is used to keep local training measurable, reproducible, and safe on consumer hardware. A good implementation records configuration, uses clear logs, saves checkpoints, and validates behavior with tests. When training a small transformer, data quality and ",
  "1864": "MiniLLM this concept is used to keep local training measurable, reproducible, and safe on consumer hardware. A good implementation records configuration, uses clear logs, saves checkpoints, and validates behavior with tests. When training a small transformer, data quality and consistent ",
  "1865": "MiniLLM this concept is used to keep local training measurable, reproducible, and safe on consumer hardware. A good implementation records configuration, uses clear logs, saves checkpoints, and validates behavior with tests. When training a small transformer, data quality and consistent ev",
  "1866": "MiniLLM this concept is used to keep local training measurable, reproducible, and safe on consumer hardware. A good implementation records configuration, uses clear logs, saves checkpoints, and validates behavior with tests. When training a small transformer, data quality and consistent evalu",
  "1867": "MiniLLM this concept is used to keep local training measurable, reproducible, and safe on consumer hardware. A good implementation records configuration, uses clear logs, saves checkpoints, and validates behavior with tests. When training a small transformer, data quality and consistent evaluation ",
  "1868": "MiniLLM this concept is used to keep local training measurable, reproducible, and safe on consumer hardware. A good implementation records configuration, uses clear logs, saves checkpoints, and validates behavior with tests. When training a small transformer, data quality and consistent evaluation are more ",
  "1869": "MiniLLM this concept is used to keep local training measurable, reproducible, and safe on consumer hardware. A good implementation records configuration, uses clear logs, saves checkpoints, and validates behavior with tests. When training a small transformer, data quality and consistent evaluation are more important ",
  "1870": "MiniLLM this concept is used to keep local training measurable, reproducible, and safe on consumer hardware. A good implementation records configuration, uses clear logs, saves checkpoints, and validates behavior with tests. When training a small transformer, data quality and consistent evaluation are more important than ",
  "1871": "MiniLLM this concept is used to keep local training measurable, reproducible, and safe on consumer hardware. A good implementation records configuration, uses clear logs, saves checkpoints, and validates behavior with tests. When training a small transformer, data quality and consistent evaluation are more important than ad",
  "1872": "MiniLLM this concept is used to keep local training measurable, reproducible, and safe on consumer hardware. A good implementation records configuration, uses clear logs, saves checkpoints, and validates behavior with tests. When training a small transformer, data quality and consistent evaluation are more important than adding ",
  "1873": "MiniLLM this concept is used to keep local training measurable, reproducible, and safe on consumer hardware. A good implementation records configuration, uses clear logs, saves checkpoints, and validates behavior with tests. When training a small transformer, data quality and consistent evaluation are more important than adding complex",
  "1874": "MiniLLM this concept is used to keep local training measurable, reproducible, and safe on consumer hardware. A good implementation records configuration, uses clear logs, saves checkpoints, and validates behavior with tests. When training a small transformer, data quality and consistent evaluation are more important than adding complexity ",
  "1875": "MiniLLM this concept is used to keep local training measurable, reproducible, and safe on consumer hardware. A good implementation records configuration, uses clear logs, saves checkpoints, and validates behavior with tests. When training a small transformer, data quality and consistent evaluation are more important than adding complexity too ",
  "1876": "MiniLLM this concept is used to keep local training measurable, reproducible, and safe on consumer hardware. A good implementation records configuration, uses clear logs, saves checkpoints, and validates behavior with tests. When training a small transformer, data quality and consistent evaluation are more important than adding complexity too early",
  "1877": "MiniLLM this concept is used to keep local training measurable, reproducible, and safe on consumer hardware. A good implementation records configuration, uses clear logs, saves checkpoints, and validates behavior with tests. When training a small transformer, data quality and consistent evaluation are more important than adding complexity too early.\n\n",
  "1878": "Ne",
  "1879": "16",
  "1880": "under the ",
  "1881": "es?\nAnswer: ",
  "1882": "part ",
  "1883": "other",
  "1884": "different ",
  "1885": "\" and \"",
  "1886": "tens",
  "1887": "es?\nQuestion: What ",
  "1888": "Instruc",
  "1889": "Instruction: ",
  "1890": "laz",
  "1891": "indu",
  "1892": "common ",
  "1893": "raph",
  "1894": "actor ",
  "1895": "second ",
  "1896": "buil",
  "1897": "mis",
  "1898": "land ",
  "1899": "ourag",
  "1900": "fiel",
  "1901": "ing in ",
  "1902": "old ",
  "1903": "alth",
  "1904": "onom",
  "1905": "will ",
  "1906": "offs",
  "1907": "offspr",
  "1908": "beli",
  "1909": "ek ",
  "1910": "lif",
  "1911": "ent, ",
  "1912": "more than ",
  "1913": "tokeniz",
  "1914": "model",
  "1915": "ject",
  "1916": "phys",
  "1917": "4 ",
  "1918": "fine-tuning",
  "1919": "vidu",
  "1920": "gin ",
  "1921": "17",
  "1922": "inary ",
  "1923": "North ",
  "1924": "featur",
  "1925": "User: Fam",
  "1926": "User: Fammi un ",
  "1927": "User: Fammi un es",
  "1928": "User: Fammi un esem",
  "1929": "User: Fammi un esempi",
  "1930": "User: Fammi un esempio ",
  "1931": "User: Fammi un esempio p",
  "1932": "User: Fammi un esempio pra",
  "1933": "User: Fammi un esempio pratic",
  "1934": "User: Fammi un esempio pratico ",
  "1935": "User: Fammi un esempio pratico su ",
  "1936": "arch",
  "1937": "bert ",
  "1938": "Roy",
  "1939": "war",
  "1940": "building ",
  "1941": "percent",
  "1942": "Id",
  "1943": "Idol",
  "1944": "winn",
  "1945": "US ",
  "1946": "has been ",
  "1947": "ourc",
  "1948": "newsp",
  "1949": "newspap",
  "1950": "head",
  "1951": "ough",
  "1952": "form ",
  "1953": "ieve ",
  "1954": "argument ",
  "1955": "BYU",
  "1956": "curr",
  "1957": ".\nQuestion: In ",
  "1958": "?\nQuestion: Who was ",
  "1959": "national",
  "1960": "Hear",
  "1961": "808",
  "1962": "alog",
  "1963": "ń",
  "1964": "genc",
  "1965": "clo",
  "1966": "year did ",
  "1967": "Charl",
  "1968": "Charlest",
  "1969": "people of col",
  "1970": "slav",
  "1971": "Ves",
  "1972": "Saint-Barthélem",
  "1973": "terr",
  "1974": "call ",
  "1975": "Wat",
  "1976": "board",
  "1977": "diseas",
  "1978": "Prince ",
  "1979": "format ",
  "1980": "radio ",
  "1981": "stations ",
  "1982": "immune system ",
  "1983": "immunolog",
  "1984": "Bur",
  "1985": "Chinese ",
  "1986": "Unic",
  "1987": "Unico",
  "1988": "General ",
  "1989": "General C",
  "1990": "Mal",
  "1991": "cast ",
  "1992": "ardin",
  "1993": "ducks ",
  "1994": "Kerry's ",
  "1995": ". However, ",
  "1996": "continu",
  "1997": "sur",
  "1998": "Joh",
  "1999": "place ",
  "2000": "s\nQuestion: ",
  "2001": "descri",
  "2002": "kind of ",
  "2003": "order",
  "2004": "Par",
  "2005": "said ",
  "2006": "arly ",
  "2007": "eful ",
  "2008": "e is ",
  "2009": "sive ",
  "2010": "hum",
  "2011": "30",
  "2012": "country ",
  "2013": "Sept",
  "2014": "September ",
  "2015": "Pres",
  "2016": "aver",
  "2017": "chem",
  "2018": "chemical ",
  "2019": "ful",
  "2020": "ing to ",
  "2021": "Ser",
  "2022": "acc",
  "2023": "plan ",
  "2024": "elim",
  "2025": "elimin",
  "2026": "mid",
  "2027": "ect ",
  "2028": "itself ",
  "2029": "state",
  "2030": "emporary ",
  "2031": "official ",
  "2032": "e, the ",
  "2033": "make ",
  "2034": "192",
  "2035": "Ex",
  "2036": "then ",
  "2037": "ole ",
  "2038": "Austr",
  "2039": "Austral",
  "2040": "down ",
  "2041": "became the ",
  "2042": "Slav",
  "2043": "an Empire",
  "2044": "organiz",
  "2045": "Rep",
  "2046": "in 18",
  "2047": "\nQuestion: Where ",
  "2048": "ed in",
  "2049": "paint",
  "2050": "ket",
  "2051": "Indian ",
  "2052": "ts and ",
  "2053": "ulture",
  "2054": "Pyth",
  "2055": "activ",
  "2056": " of the ",
  "2057": "Netherland",
  "2058": "of a ",
  "2059": "y?\nQuestion: What ",
  "2060": "mut",
  "2061": "even ",
  "2062": "exten",
  "2063": "signific",
  "2064": "same ",
  "2065": "industr",
  "2066": "les ",
  "2067": "black",
  "2068": "not",
  "2069": "10 ",
  "2070": "exper",
  "2071": "om ",
  "2072": "encourag",
  "2073": "servic",
  "2074": ", in ",
  "2075": "capital ",
  "2076": "in 190",
  "2077": "im ",
  "2078": "definition of ",
  "2079": "ethnic",
  "2080": "definition",
  "2081": "mat",
  "2082": "ral ",
  "2083": "th and ",
  "2084": "estern ",
  "2085": "theory ",
  "2086": "oppon",
  "2087": "used by ",
  "2088": "fine-tuning.\nAssistant: In breve, ",
  "2089": "fine-tuning.\nAssistant: In breve, fine-tuning ",
  "2090": "compar",
  "2091": "aut",
  "2092": "individu",
  "2093": "Sh",
  "2094": "vir",
  "2095": "ically ",
  "2096": "Philadelphia ",
  "2097": "use of ",
  "2098": "DN",
  "2099": "toge",
  "2100": "gene",
  "2101": "model ",
  "2102": "ight",
  "2103": "s. In ",
  "2104": "primary ",
  "2105": "nec",
  "2106": "famous ",
  "2107": "Society ",
  "2108": "ature ",
  "2109": "s on ",
  "2110": "Southampton ",
  "2111": "ulture ",
  "2112": "ox",
  "2113": "struct",
  "2114": "wro",
  "2115": "Liver",
  "2116": "lex",
  "2117": "bal ",
  "2118": "compensation ",
  "2119": "compensation argum",
  "2120": "ben",
  "2121": "rimh",
  "2122": "primarily ",
  "2123": "politic",
  "2124": "exec",
  "2125": "contain",
  "2126": "music",
  "2127": "Def ",
  "2128": "ramm",
  "2129": "published ",
  "2130": "stand",
  "2131": "ategor",
  "2132": "e their ",
  "2133": "center",
  "2134": "hy",
  "2135": "avig",
  "2136": "mbios",
  "2137": "language ",
  "2138": "cotton ",
  "2139": "?\nQuestion: What percent",
  "2140": "?\nQuestion: What percentage of ",
  "2141": "Lat",
  "2142": "chat ",
  "2143": "chat mo",
  "2144": "ocking",
  "2145": "ockingbir",
  "2146": "Watch",
  "2147": "fa",
  "2148": "ok",
  "2149": "Eton ",
  "2150": ", E",
  "2151": "ograph",
  "2152": "func",
  "2153": "Fed",
  "2154": "Bell ",
  "2155": "terror",
  "2156": "terrorist ",
  "2157": "Burm",
  "2158": "New J",
  "2159": "New Jer",
  "2160": "New Jerse",
  "2161": "pit",
  "2162": "rowser",
  "2163": "broadcast ",
  "2164": "token ",
  "2165": "ardinals ",
  "2166": "Cubism ",
  "2167": "e. ",
  "2168": "past ",
  "2169": "ial",
  "2170": "fre",
  "2171": "15",
  "2172": "rais",
  "2173": "– ",
  "2174": "a re",
  "2175": "apon",
  "2176": "ek",
  "2177": "del",
  "2178": "n't ",
  "2179": "Russi",
  "2180": "y, the ",
  "2181": "Counc",
  "2182": "appe",
  "2183": "opposi",
  "2184": "parliament",
  "2185": "ation of the ",
  "2186": "prime minister ",
  "2187": "put ",
  "2188": "contemporary ",
  "2189": "has the ",
  "2190": "exampl",
  "2191": "earli",
  "2192": "earlier ",
  "2193": "previ",
  "2194": "\nQuestion: What was the ",
  "2195": "if ",
  "2196": "t, ",
  "2197": "title ",
  "2198": "; the ",
  "2199": ".\nQuestion: What is the ",
  "2200": "Serb",
  "2201": "ire ",
  "2202": "ed in 19",
  "2203": "det",
  "2204": "World War ",
  "2205": "ativ",
  "2206": "es of the ",
  "2207": "countries ",
  "2208": "path",
  "2209": "Republ",
  "2210": "Le",
  "2211": "?\nAnswer: a ",
  "2212": "Cont",
  "2213": "pot",
  "2214": "vent",
  "2215": "?\nQuestion: When did ",
  "2216": "part of ",
  "2217": "ed what ",
  "2218": "Count",
  "2219": "\nQuestion: Which ",
  "2220": "family ",
  "2221": "complet",
  "2222": "es to ",
  "2223": "sor",
  "2224": "no ",
  "2225": "a self-attention ",
  "2226": "son",
  "2227": "making ",
  "2228": "can be ",
  "2229": "types of ",
  "2230": "es were ",
  "2231": "or of ",
  "2232": "impro",
  "2233": "ements ",
  "2234": "event",
  "2235": "gener",
  "2236": "regul",
  "2237": "occur",
  "2238": "areas ",
  "2239": "polic",
  "2240": "ater ",
  "2241": "rown ",
  "2242": "colon",
  "2243": "it was ",
  "2244": "William",
  "2245": "uring the ",
  "2246": "iden",
  "2247": "s of a ",
  "2248": "definitions of ",
  "2249": "ril",
  "2250": "yl",
  "2251": "tation",
  "2252": "Cana",
  "2253": "children",
  "2254": "mixed ",
  "2255": ". He ",
  "2256": "na",
  "2257": ". Th",
  "2258": "mother",
  "2259": "gradu",
  "2260": "before ",
  "2261": "class",
  "2262": "University ",
  "2263": "theor",
  "2264": "membran",
  "2265": "Baptist ",
  "2266": "doctr",
  "2267": "Chris",
  "2268": "churches",
  "2269": "Some ",
  "2270": "DNA ",
  "2271": "together ",
  "2272": "ate the ",
  "2273": "ple ",
  "2274": "cells ",
  "2275": "uk",
  "2276": "\nThe ",
  "2277": "NES ",
  "2278": "how many ",
  "2279": "fron",
  "2280": "tain ",
  "2281": "archit",
  "2282": "architect",
  "2283": "London",
  "2284": "Albert ",
  "2285": "Royal ",
  "2286": "main",
  "2287": "are the ",
  "2288": "flo",
  "2289": "far ",
  "2290": "American Idol",
  "2291": "La",
  "2292": "Cre",
  "2293": "song",
  "2294": "album",
  "2295": "2003",
  "2296": "name of the ",
  "2297": "s?\n",
  "2298": "ient ",
  "2299": "Him",
  "2300": "Himach",
  "2301": "daily ",
  "2302": "BJ",
  "2303": "BJP",
  "2304": "t to ",
  "2305": "effic",
  "2306": "bri",
  "2307": "either ",
  "2308": "hear",
  "2309": "enz",
  "2310": "wrote ",
  "2311": "these ",
  "2312": "ner",
  "2313": "it is ",
  "2314": "ently ",
  "2315": "benef",
  "2316": "terms of ",
  "2317": "proper",
  "2318": "arl ",
  "2319": "evolution",
  "2320": " and G",
  "2321": " and Gurr",
  "2322": ".\"",
  "2323": "tion and ",
  "2324": "big",
  "2325": "opus ",
  "2326": "atalog",
  "2327": "erence ",
  "2328": "Kob",
  "2329": "Koby",
  "2330": "Kobyla",
  "2331": "Kobylań",
  "2332": "Kobylańsk",
  "2333": "ry",
  "2334": "way",
  "2335": "begin ",
  "2336": "priv",
  "2337": "private ",
  "2338": "symbios",
  "2339": "econom",
  "2340": "Carolin",
  "2341": "free people of col",
  "2342": "appear",
  "2343": "wa",
  "2344": "City ",
  "2345": "FA",
  "2346": "granul",
  "2347": "granulom",
  "2348": "hag",
  "2349": "yt",
  "2350": "training loc",
  "2351": "datas",
  "2352": "oi ",
  "2353": "?\nQuestion: In what year did ",
  "2354": "Princess ",
  "2355": "atell",
  "2356": "merc",
  "2357": "Muslim",
  "2358": "conflic",
  "2359": "Arm",
  "2360": "General Category ",
  "2361": "Malay",
  "2362": "Atl",
  "2363": "Atlan",
  "2364": "Atlantic ",
  "2365": "area code ",
  "2366": "pitch ",
  "2367": "b b",
  "2368": "Network",
  "2369": "call center",
  "2370": "Samoa ",
  "2371": "quail",
  "2372": "Jap",
  "2373": "Japan",
  "2374": "ch, ",
  "2375": ".\" ",
  "2376": "lower ",
  "2377": "employe",
  "2378": ". After ",
  "2379": "fav",
  "2380": "11",
  "2381": "bish",
  "2382": "just ",
  "2383": "ed at ",
  "2384": "come ",
  "2385": "support",
  "2386": "ern",
  "2387": "number",
  "2388": "say ",
  "2389": "President ",
  "2390": "al-",
  "2391": "turn ",
  "2392": "chemical we",
  "2393": "chemical weapon",
  "2394": "nex",
  "2395": "week",
  "2396": "account",
  "2397": "ut ",
  "2398": "mark ",
  "2399": "Minister ",
  "2400": "plication ",
  "2401": "jo",
  "2402": "ning ",
  "2403": "S. ",
  "2404": "attack",
  "2405": "parliament ",
  "2406": "house ",
  "2407": "s, the ",
  "2408": "f the ",
  "2409": "charg",
  "2410": "prime minister",
  "2411": "dam",
  "2412": "and a ",
  "2413": "reques",
  "2414": "wher",
  "2415": "back ",
  "2416": "re ",
  "2417": "titution ",
  "2418": ".\nQuestion: When ",
  "2419": "y the ",
  "2420": "alter",
  "2421": "altern",
  "2422": "Australia",
  "2423": "?\nIn ",
  "2424": "Is",
  "2425": "is not ",
  "2426": "Mon",
  "2427": "independence ",
  "2428": "lar",
  "2429": "xim",
  "2430": "ximately ",
  "2431": "million ",
  "2432": "den",
  "2433": "vo",
  "2434": "deter",
  "2435": "determin",
  "2436": "chos",
  "2437": "create ",
  "2438": "serve a rendere il progetto più controllabile, più leggibile e più facile da migliorare.\n\nContext: ",
  "2439": "ists ",
  "2440": "ument",
  "2441": "ument ",
  "2442": "indigen",
  "2443": "arv",
  "2444": "Native ",
  "2445": "es in ",
  "2446": "order ",
  "2447": "2007",
  "2448": "\nQuestion: When was ",
  "2449": "gradi",
  "2450": "comput",
  "2451": "prec",
  "2452": "mark",
  "2453": "mac",
  "2454": "present ",
  "2455": "ties ",
  "2456": "under",
  "2457": "ility ",
  "2458": "words ",
  "2459": "various ",
  "2460": "relationship",
  "2461": "word",
  "2462": "avo",
  "2463": "ological ",
  "2464": "is similar ",
  "2465": "significant ",
  "2466": "s, what ",
  "2467": "glaz",
  "2468": "ellow",
  "2469": "radium ",
  "2470": "notable ",
  "2471": "ak ",
  "2472": "atory ",
  "2473": "enn",
  "2474": "located ",
  "2475": "20 ",
  "2476": "divis",
  "2477": "and other ",
  "2478": "burb",
  "2479": "s have ",
  "2480": "seen ",
  "2481": "orpor",
  "2482": ". It was ",
  "2483": "named ",
  "2484": "ially ",
  "2485": "50",
  "2486": "citi",
  "2487": "identit",
  "2488": "identity ",
  "2489": "with a ",
  "2490": "akh",
  "2491": "riline",
  "2492": "Tor",
  "2493": "] ",
  "2494": "w ",
  "2495": "?\nQuestion: What is ",
  "2496": "never ",
  "2497": "?\nQuestion: When was the ",
  "2498": "appl",
  "2499": "contr",
  "2500": "believ",
  "2501": "Res",
  "2502": "ock ",
  "2503": "way ",
  "2504": "univers",
  "2505": "held ",
  "2506": "quar",
  "2507": "students ",
  "2508": "ity's ",
  "2509": "through ",
  "2510": "and the ",
  "2511": "traditional ",
  "2512": "197",
  "2513": "diag",
  "2514": "diagram",
  "2515": "—",
  "2516": "direc",
  "2517": "expl",
  "2518": "ession",
  "2519": "distinc",
  "2520": "ine, ",
  "2521": "Baptists ",
  "2522": "key ",
  "2523": "what?\nAnswer: ",
  "2524": "birth",
  "2525": "sal",
  "2526": "ief ",
  "2527": "Lor",
  "2528": "characteriz",
  "2529": "sem",
  "2530": "fis",
  "2531": "spl",
  "2532": "es. ",
  "2533": "between the ",
  "2534": "checkpoint ",
  "2535": "-10",
  "2536": "-101 ",
  "2537": "adop",
  "2538": "adopted ",
  "2539": "pin",
  "2540": "released ",
  "2541": "went ",
  "2542": "front ",
  "2543": "Famic",
  "2544": "feature",
  "2545": ".\nAssistant: Certo. Partiamo dall'obiettivo, poi guardiamo i dati e infine verifichiamo il risultato con un test semplice.\n",
  "2546": "London's ",
  "2547": "white ",
  "2548": "\nQuestion: W",
  "2549": "yle ",
  "2550": "most",
  "2551": "mostly ",
  "2552": "00 ",
  "2553": "species of ",
  "2554": "flower",
  "2555": "growing ",
  "2556": "members ",
  "2557": "fic ",
  "2558": "SS",
  "2559": "6 ",
  "2560": "ed from ",
  "2561": "ected",
  "2562": "2011",
  "2563": "season ",
  "2564": "cCre",
  "2565": "cCreer",
  "2566": "ove ",
  "2567": "\", ",
  "2568": "board ",
  "2569": "thous",
  "2570": "portion of ",
  "2571": "s re",
  "2572": "ve the ",
  "2573": "within the ",
  "2574": "Himachal ",
  "2575": ", D",
  "2576": "grown ",
  "2577": "elected ",
  "2578": "were the ",
  "2579": "veg",
  "2580": "veget",
  "2581": "effor",
  "2582": "iency ",
  "2583": "heav",
  "2584": "heavy ",
  "2585": "intro",
  "2586": "clos",
  "2587": "ribut",
  "2588": "Mac",
  "2589": "vic",
  "2590": "Liverpo",
  "2591": "Liverpool",
  "2592": "eal",
  "2593": "Alex",
  "2594": "discrimination",
  "2595": "result",
  "2596": "?\nQuestion: A",
  "2597": "compensation argument",
  "2598": "black ",
  "2599": "society ",
  "2600": "unish",
  "2601": "ham ",
  "2602": "oung ",
  "2603": "began ",
  "2604": "involv",
  "2605": "Chur",
  "2606": "for a ",
  "2607": "ty ",
  "2608": ", who ",
  "2609": "ali",
  "2610": "defined ",
  "2611": "Harff and Gurr",
  "2612": "shor",
  "2613": "persist",
  "2614": "ocide ",
  "2615": "umm",
  "2616": "to their ",
  "2617": "rac",
  "2618": "id ",
  "2619": "hot ",
  "2620": "808s ",
  "2621": "e's ",
  "2622": "stu",
  "2623": "ft ",
  "2624": "execut",
  "2625": "tan",
  "2626": "Chop",
  "2627": "categor",
  "2628": "Def L",
  "2629": "Def Lep",
  "2630": "Def Leppar",
  "2631": "roc",
  "2632": "help",
  "2633": "emer",
  "2634": "encep",
  "2635": "encephal",
  "2636": "ated",
  "2637": "growth ",
  "2638": "took ",
  "2639": "vari",
  "2640": "labor ",
  "2641": "tivi",
  "2642": "Terr",
  "2643": "viation ",
  "2644": "mbol",
  "2645": "comb",
  "2646": " (",
  "2647": "US",
  "2648": "seaf",
  "2649": "seafo",
  "2650": "lobal ",
  "2651": "Contro",
  "2652": "rophag",
  "2653": "antig",
  "2654": "e.\nAssistant: ",
  "2655": "User: Cia",
  "2656": "User: Ciao, ",
  "2657": "User: Ciao, pu",
  "2658": "User: Ciao, puoi ",
  "2659": "User: Ciao, puoi ai",
  "2660": "User: Ciao, puoi aiut",
  "2661": "User: Ciao, puoi aiutarm",
  "2662": "User: Ciao, puoi aiutarmi ",
  "2663": "User: Ciao, puoi aiutarmi con ",
  "2664": "colleg",
  "2665": "Singap",
  "2666": "Rox",
  "2667": "Roxbur",
  "2668": "Roxbury ",
  "2669": "Roxbury Lat",
  "2670": "Bost",
  "2671": "Scholar",
  "2672": "study ",
  "2673": "Wind",
  "2674": "Windsor",
  "2675": "Ed",
  "2676": "ians ",
  "2677": "sure",
  "2678": "format",
  "2679": "1960",
  "2680": "demograph",
  "2681": "atellite ",
  "2682": "ure, ",
  "2683": "Unicode ",
  "2684": "remov",
  "2685": "Other",
  "2686": "useful ",
  "2687": "useful for ",
  "2688": "casino",
  "2689": "sister ",
  "2690": "otb",
  "2691": "College of ",
  "2692": "b browser",
  "2693": "lay",
  "2694": "NFL ",
  "2695": "shown ",
  "2696": "CBS ",
  "2697": ".\np",
  "2698": "domesticated ",
  "2699": "egg",
  "2700": "down",
  "2701": "cording ",
  "2702": "cording to ",
  "2703": "partment ",
  "2704": ", a ",
  "2705": "Secret",
  "2706": "ary of ",
  "2707": "ate",
  "2708": "show",
  "2709": "ign ",
  "2710": "Tower ",
  "2711": "international ",
  "2712": "ask",
  "2713": "U.",
  "2714": "period",
  "2715": "tri",
  "2716": "describ",
  "2717": "hav",
  "2718": "disorder",
  "2719": "\nIn ",
  "2720": "ularly ",
  "2721": "’",
  "2722": "’s ",
  "2723": "oly ",
  "2724": "comment",
  "2725": "Pop",
  "2726": "II ",
  "2727": "s and the ",
  "2728": ",000",
  "2729": "response ",
  "2730": "bit ",
  "2731": "next ",
  "2732": "without ",
  "2733": "it, and ",
  "2734": "process ",
  "2735": "agre",
  "2736": "al, ",
  "2737": "medi",
  "2738": "quick",
  "2739": "quickly ",
  "2740": "vention ",
  "2741": "Council ",
  "2742": "e\nQuestion: What ",
  "2743": "parlim",
  "2744": "allow",
  "2745": "head of ",
  "2746": "parliamentary ",
  "2747": "ides ",
  "2748": "prev",
  "2749": "s, which ",
  "2750": "usually ",
  "2751": "from",
  "2752": "?\nO",
  "2753": ", for ",
  "2754": "back to ",
  "2755": "ly, ",
  "2756": "though ",
  "2757": "Ir",
  "2758": "Irish ",
  "2759": "utive ",
  "2760": "start",
  "2761": "previous",
  "2762": "gave ",
  "2763": "Prim",
  "2764": "suc",
  "2765": "(which ",
  "2766": "ed into ",
  "2767": "Isra",
  "2768": "meaning ",
  "2769": "term for ",
  "2770": "?\nQuestion: When was ",
  "2771": "187",
  "2772": "Slavic ",
  "2773": "ia and ",
  "2774": "Ot",
  "2775": "declar",
  "2776": "present",
  "2777": "Cz",
  "2778": "Cze",
  "2779": "lov",
  "2780": "lovak",
  "2781": "Polish ",
  "2782": ", and the ",
  "2783": "world ",
  "2784": "kill",
  "2785": "posso ",
  "2786": "string",
  "2787": "May",
  "2788": "indigenous ",
  "2789": "ise ",
  "2790": "category ",
  "2791": "ection",
  "2792": "prof",
  "2793": "United States",
  "2794": "Arts and ",
  "2795": "Arts and C",
  "2796": "90",
  "2797": "state or ",
  "2798": "fed",
  "2799": "For",
  "2800": "adv",
  "2801": "es a ",
  "2802": "fig",
  "2803": "ward ",
  "2804": ". In MiniLLM this concept is used to keep local training measurable, reproducible, and safe on consumer hardware. A good implementation records configuration, uses clear logs, saves checkpoints, and validates behavior with tests. When training a small transformer, data quality and consistent evaluation are more important than adding complexity too early.\n\n",
  "2805": "ultim",
  "2806": "ultimately ",
  "2807": "?\nQuestion: What was the ",
  "2808": "later ",
  "2809": "Kingdom of ",
  "2810": "ic of ",
  "2811": "Low ",
  "2812": "Low Count",
  "2813": "chi",
  "2814": "Franc",
  "2815": "made up ",
  "2816": "rul",
  "2817": "after the ",
  "2818": "languages ",
  "2819": "languag",
  "2820": "Spanish",
  "2821": "ot ",
  "2822": "Italian and ",
  "2823": "forming ",
  "2824": "less ",
  "2825": "result ",
  "2826": "spe",
  "2827": ".[",
  "2828": "itation ",
  "2829": "is similar to the ",
  "2830": "used",
  "2831": "Inter",
  "2832": "\nContext: ",
  "2833": "Instruction: Spieg",
  "2834": "Instruction: Spiega ",
  "2835": "modell",
  "2836": "modello ",
  "2837": "including ",
  "2838": "-d",
  "2839": "ellow ",
  "2840": "last ",
  "2841": "ge ",
  "2842": "ental ",
  "2843": "Dec",
  "2844": "December ",
  "2845": ", but ",
  "2846": "growth",
  "2847": "increased ",
  "2848": "avail",
  "2849": "policies ",
  "2850": "suburb",
  "2851": "30 ",
  "2852": "incorpor",
  "2853": "ictor",
  "2854": "7, ",
  "2855": "religion ",
  "2856": "ical definitions of ",
  "2857": "Jewish identity ",
  "2858": "halakh",
  "2859": "halakhic ",
  "2860": "e and ",
  "2861": "interpre",
  "2862": "on?\nAnswer: ",
  "2863": "ah",
  "2864": "mixed marri",
  "2865": "mixed marriages ",
  "2866": "Mish",
  "2867": "Mishna",
  "2868": "as it ",
  "2869": "hor",
  "2870": "could not ",
  "2871": "legal ",
  "2872": "e, offspr",
  "2873": "follow ",
  "2874": "home ",
  "2875": "earch ",
  "2876": "ute ",
  "2877": "originally ",
  "2878": "Greek ",
  "2879": "od, ",
  "2880": "Memor",
  "2881": "ori",
  "2882": "lou",
  "2883": "much ",
  "2884": "western ",
  "2885": "\nQuestion: How ",
  "2886": "\n\nTechnical note: ",
  "2887": "tokenizer ",
  "2888": "Yal",
  "2889": "?\nQuestion: What was ",
  "2890": "string ",
  "2891": "death",
  "2892": "critic",
  "2893": "view",
  "2894": "don't ",
  "2895": "experim",
  "2896": "stil",
  "2897": "still ",
  "2898": "men",
  "2899": "e by ",
  "2900": "shap",
  "2901": "ou ",
  "2902": " to ",
  "2903": "User: Spiegami in modo semplice fine-tuning.\nAssistant: In breve, fine-tuning ",
  "2904": "ost ",
  "2905": "Baptists have ",
  "2906": "fil",
  "2907": "ble ",
  "2908": " is ",
  "2909": "DNA re",
  "2910": "ary",
  "2911": "called ",
  "2912": "inary fis",
  "2913": "it the ",
  "2914": "cy",
  "2915": "itt",
  "2916": "once ",
  "2917": "inher",
  "2918": "HV",
  "2919": "HVC",
  "2920": "use in ",
  "2921": "North Americ",
  "2922": "put",
  "2923": "controller ",
  "2924": "roph",
  "2925": "poss",
  "2926": "possess",
  "2927": "User: Fammi un esempio pratico su machine learning",
  "2928": "City of ",
  "2929": "ounding ",
  "2930": "ington ",
  "2931": "rick ",
  "2932": "gest ",
  "2933": "40 ",
  "2934": "percent ",
  "2935": "open ",
  "2936": ". The",
  "2937": "indic",
  "2938": "fish",
  "2939": "pec",
  "2940": "ves",
  "2941": "he was ",
  "2942": "To",
  "2943": "s from ",
  "2944": "Love ",
  "2945": "Bill",
  "2946": "Billboard ",
  "2947": "er of ",
  "2948": "song ",
  "2949": "vel",
  "2950": "around the ",
  "2951": "bor",
  "2952": "sourc",
  "2953": "fact ",
  "2954": "anal",
  "2955": "mem",
  "2956": "memory ",
  "2957": "active ",
  "2958": "ourn",
  "2959": "district ",
  "2960": "y (",
  "2961": "Cong",
  "2962": "Congres",
  "2963": "legis",
  "2964": "had",
  "2965": "agric",
  "2966": "few ",
  "2967": "meth",
  "2968": "introduc",
  "2969": "had been ",
  "2970": "ies",
  "2971": "face ",
  "2972": "ts in ",
  "2973": "4, ",
  "2974": "Arn",
  "2975": "old",
  "2976": "wrote the ",
  "2977": "stor",
  "2978": "victim",
  "2979": "reveal",
  "2980": "camp",
  "2981": "ing it ",
  "2982": "ed their ",
  "2983": "member",
  "2984": "form of ",
  "2985": "is an ",
  "2986": "some",
  "2987": "believe ",
  "2988": "be the ",
  "2989": "today ",
  "2990": "treat",
  "2991": "benefited ",
  "2992": "control ",
  "2993": "made by ",
  "2994": "that is ",
  "2995": "fur",
  "2996": "responsible ",
  "2997": ". Brimh",
  "2998": "ator ",
  "2999": "Brig",
  "3000": "Brigham ",
  "3001": "Brigham Y",
  "3002": "Brigham Young ",
  "3003": "res (",
  "3004": "pur",
  "3005": "current ",
  "3006": "presid",
  "3007": "taugh",
  "3008": "High ",
  "3009": "Frank",
  "3010": "groups are ",
  "3011": "genoc",
  "3012": "political ",
  "3013": "s for ",
  "3014": "genocide ",
  "3015": "?\nQuestion: What did ",
  "3016": "Rumm",
  "3017": "ord",
  "3018": "government of ",
  "3019": "meaning of ",
  "3020": "808s &",
  "3021": "808s & ",
  "3022": "808s & Hear",
  "3023": "808s & Heart",
  "3024": "808s & Heartbre",
  "3025": "production",
  "3026": "Jam",
  "3027": "ably ",
  "3028": "piec",
  "3029": "Op",
  "3030": "Kobylańska ",
  "3031": "Kobylańska C",
  "3032": "Kobylańska Catalog",
  "3033": "given ",
  "3034": "rock ",
  "3035": "d's ",
  "3036": "ax",
  "3037": "envir",
  "3038": "environ",
  "3039": "navig",
  "3040": "close ",
  "3041": "bi",
  "3042": "Frank ",
  "3043": "relationship ",
  "3044": "cover",
  "3045": "South Carolin",
  "3046": "island",
  "3047": "?\nQuestion: In what year was the ",
  "3048": "Brown ",
  "3049": "Brown F",
  "3050": "Brown Fellow",
  "3051": "Brown Fellowship ",
  "3052": "Brown Fellowship Society ",
  "3053": "Charleston's ",
  "3054": "lave ",
  "3055": "Vesey",
  "3056": "St. B",
  "3057": "Sw",
  "3058": "War",
  "3059": "Symbol",
  "3060": "To ",
  "3061": "To K",
  "3062": "To Kill ",
  "3063": "To Kill a M",
  "3064": "To Kill a Mockingbir",
  "3065": "2015",
  "3066": "New Y",
  "3067": "New Yor",
  "3068": "Watchman ",
  "3069": "book",
  "3070": "house",
  "3071": "English -",
  "3072": "rho",
  "3073": "thern ",
  "3074": "Canadi",
  "3075": "Canadian ",
  "3076": "turn",
  "3077": "s.\n",
  "3078": "quac",
  "3079": "quaculture ",
  "3080": "global ",
  "3081": "atis",
  "3082": "to f",
  "3083": "azion",
  "3084": "ocyt",
  "3085": "suppres",
  "3086": "macrophag",
  "3087": "dash",
  "3088": "college ",
  "3089": "Roxbury Latin ",
  "3090": "headma",
  "3091": "s' ",
  "3092": "attended ",
  "3093": "uke of ",
  "3094": "arl of ",
  "3095": "appear ",
  "3096": "ic R",
  "3097": "\nQuestion: Why ",
  "3098": "function",
  "3099": "ical immunolog",
  "3100": "clin",
  "3101": "sensi",
  "3102": "odefic",
  "3103": "tics ",
  "3104": "Federal ",
  "3105": "Federal A",
  "3106": "Federal Aviation ",
  "3107": "ks",
  "3108": "deaf",
  "3109": "father ",
  "3110": "subject",
  "3111": "United States ",
  "3112": "terrorist group",
  "3113": "Burmese ",
  "3114": "conflict ",
  "3115": "tow",
  "3116": "toward",
  "3117": "Brit",
  "3118": "Gam",
  "3119": "Co",
  "3120": "sm",
  "3121": "New Jersey ",
  "3122": "casino ",
  "3123": "open",
  "3124": "brain effic",
  "3125": "memor",
  "3126": "PG",
  "3127": "PGW",
  "3128": "usin",
  "3129": "riang",
  "3130": "footb",
  "3131": "team ",
  "3132": "Terror",
  "3133": "user ",
  "3134": "user inter",
  "3135": "layout ",
  "3136": "layout eng",
  "3137": "compon",
  "3138": "AFL ",
  "3139": "games ",
  "3140": "CBS S",
  "3141": "CBS Sports ",
  "3142": "job",
  "3143": "Virgin ",
  "3144": "tensor ",
  "3145": ".\na ",
  "3146": "autom",
  "3147": "ispan",
  "3148": "ispanic ",
  "3149": "Cardinals ",
  "3150": "athle",
  "3151": "Japanese ",
  "3152": "egg ",
  "3153": "word '",
  "3154": "\"H",
  "3155": "mor",
  "3156": "Clin",
  "3157": "val ",
  "3158": "among ",
  "3159": "Secretary of ",
  "3160": "favor",
  "3161": "ability ",
  "3162": "Fore",
  "3163": "Foreign ",
  "3164": "ve",
  "3165": "John ",
  "3166": "out of the ",
  "3167": "ained ",
  "3168": "?\nAnswer: C",
  "3169": "Jan",
  "3170": "e that ",
  "3171": "we ",
  "3172": "ern ",
  "3173": "all of ",
  "3174": "great ",
  "3175": "particularly ",
  "3176": "bishop",
  "3177": "equ",
  "3178": "Holy ",
  "3179": "s\n",
  "3180": "regard",
  "3181": "Genev",
  "3182": "to have ",
  "3183": "tak",
  "3184": "in J",
  "3185": "s with ",
  "3186": "on September ",
  "3187": "whe",
  "3188": "whether ",
  "3189": "ilit",
  "3190": "ilitary ",
  "3191": "single ",
  "3192": "of his ",
  "3193": "chemical weapons ",
  "3194": "it, ",
  "3195": "allow ",
  "3196": "tot",
  "3197": "total ",
  "3198": "that",
  "3199": "to do ",
  "3200": "initi",
  "3201": "lead ",
  "3202": "destro",
  "3203": "statement ",
  "3204": "y\" ",
  "3205": "N ",
  "3206": "U.S. ",
  "3207": "28",
  "3208": "olution ",
  "3209": "effect ",
  "3210": "attemp",
  "3211": "dissolu",
  "3212": "dissolution of ",
  "3213": "happ",
  "3214": "dition ",
  "3215": "where",
  "3216": "1918",
  "3217": "or to ",
  "3218": ", it ",
  "3219": "ao",
  "3220": "to make ",
  "3221": "ecutive ",
  "3222": "previously ",
  "3223": "Prime ",
  "3224": "majority ",
  "3225": "Ab",
  "3226": "ed for the ",
  "3227": "led ",
  "3228": "while the ",
  "3229": "What ",
  "3230": "foun",
  "3231": "8, ",
  "3232": "an Empire, ",
  "3233": "Monten",
  "3234": "Monteneg",
  "3235": "gar",
  "3236": "mp",
  "3237": "approximately ",
  "3238": "23 ",
  "3239": "s of the ",
  "3240": "World War I",
  "3241": "Czechos",
  "3242": "Czechoslovak",
  "3243": "Czechoslovakia",
  "3244": "Republic",
  "3245": "in the world ",
  "3246": "User: Come ",
  "3247": "User: Come posso ",
  "3248": "User: Come posso m",
  "3249": "User: Come posso miglior",
  "3250": "User: Come posso migliorare ",
  "3251": "nel mi",
  "3252": "nel mio ",
  "3253": "nel mio prog",
  "3254": "nel mio proget",
  "3255": "nel mio progetto",
  "3256": "nel mio progetto?\nAssistant: ",
  "3257": "nel mio progetto?\nAssistant: In breve, ",
  "3258": "d a ",
  "3259": "sound ",
  "3260": "arts ",
  "3261": "ribu",
  "3262": "ry, ",
  "3263": "order to ",
  "3264": "Act of ",
  "3265": "to pro",
  "3266": "they are ",
  "3267": "a state or ",
  "3268": "feder",
  "3269": "ally recogn",
  "3270": "culture",
  "3271": "Found",
  "3272": "seed ",
  "3273": "fun",
  "3274": "?\nQuestion: Why ",
  "3275": "includes ",
  "3276": "Python",
  "3277": "Python.\nAssistant: In breve, ",
  "3278": "Python.\nAssistant: In breve, Pyth",
  "3279": "Python.\nAssistant: In breve, Python ",
  "3280": "VR",
  "3281": "VRA",
  "3282": "back",
  "3283": "known as the ",
  "3284": "separate ",
  "3285": "known as",
  "3286": "s did the ",
  "3287": "by",
  "3288": "period ",
  "3289": "Name ",
  "3290": "Low Countries ",
  "3291": "number of ",
  "3292": "almost ",
  "3293": "eption ",
  "3294": "county of ",
  "3295": "Fl",
  "3296": "was a ",
  "3297": "share ",
  "3298": "mutual ",
  "3299": "hen",
  "3300": "sibility ",
  "3301": "numer",
  "3302": ", y",
  "3303": "words are ",
  "3304": "structur",
  "3305": "citation ",
  "3306": "citation ne",
  "3307": "citation nee",
  "3308": "citation needed",
  "3309": "Italian word ",
  "3310": "ity?\nAnswer: ",
  "3311": "ingu",
  "3312": "Instruction: Spiega l",
  "3313": "Instruction: Spiega la self-attention ",
  "3314": "Instruction: Spiega la self-attention in ",
  "3315": "Instruction: Spiega la self-attention in modo ",
  "3316": "Instruction: Spiega la self-attention in modo semplice.\n",
  "3317": "ali ",
  "3318": "contes",
  "3319": "contesto",
  "3320": "as a w",
  "3321": "one g",
  "3322": "tile ",
  "3323": "room",
  "3324": "blu",
  "3325": "blue, ",
  "3326": "dial",
  "3327": "d, ",
  "3328": "was",
  "3329": "was the first ",
  "3330": "Commis",
  "3331": "four ",
  "3332": "wat",
  "3333": "t by the ",
  "3334": "Melbourne ",
  "3335": "housing ",
  "3336": "division ",
  "3337": "-dens",
  "3338": "high",
  "3339": "Melbourne",
  "3340": "rown",
  "3341": "recent ",
  "3342": "set",
  "3343": "Richard ",
  "3344": "hon",
  "3345": "officially ",
  "3346": "at of ",
  "3347": "Jew ",
  "3348": "shar",
  "3349": "ethnicity, ",
  "3350": "characteristics ",
  "3351": "included ",
  "3352": "traditionally ",
  "3353": "matriline",
  "3354": "conver",
  "3355": "band",
  "3356": "., ",
  "3357": "say",
  "3358": "s that the ",
  "3359": "an and ",
  "3360": "ra ",
  "3361": "ies, ",
  "3362": "what year",
  "3363": "marriag",
  "3364": "pat",
  "3365": "explan",
  "3366": "ix",
  "3367": "law",
  "3368": "ated that ",
  "3369": "lack ",
  "3370": "Mat",
  "3371": "?\nQuestion: Where ",
  "3372": "ountain ",
  "3373": "ass of ",
  "3374": "190",
  "3375": "-h",
  "3376": "istory ",
  "3377": "children's ",
  "3378": "quarter",
  "3379": "s or ",
  "3380": "in c",
  "3381": "illo ",
  "3382": "illo D",
  "3383": "ay, ",
  "3384": "a da",
  "3385": "Memorial ",
  "3386": "transf",
  "3387": "Arch ",
  "3388": "during the ",
  "3389": "tu",
  "3390": "did Feynman ",
  "3391": "help ",
  "3392": "1970",
  "3393": "daugh",
  "3394": "daughter ",
  "3395": "Feynman diagram",
  "3396": "now ",
  "3397": "string theory ",
  "3398": "top",
  "3399": "s such as ",
  "3400": "aid",
  "3401": "-up ",
  "3402": "Well",
  "3403": "opponents ",
  "3404": "direction ",
  "3405": "shape ",
  "3406": "considering ",
  "3407": "them to be ",
  "3408": "particular ",
  "3409": "Baptist",
  "3410": "s. M",
  "3411": "individual ",
  "3412": "role ",
  "3413": "church ",
  "3414": "?\nQuestion: Baptists have ",
  "3415": "s?\nQuestion: ",
  "3416": "small ",
  "3417": "Tr",
  "3418": "Christ ",
  "3419": "tion, and ",
  "3420": "ession ",
  "3421": "y) ",
  "3422": "s. Some ",
  "3423": "historically ",
  "3424": "Hamp",
  "3425": "pref",
  "3426": "ess of ",
  "3427": "\nA",
  "3428": "DNA replication ",
  "3429": "must ",
  "3430": "vide ",
  "3431": "into two ",
  "3432": "bacter",
  "3433": "topl",
  "3434": "toplas",
  "3435": "trem",
  "3436": "complex ",
  "3437": "mol",
  "3438": "molec",
  "3439": "optim",
  "3440": "optimiz",
  "3441": "optimizer ",
  "3442": "s. In MiniLLM this concept is used to keep local training measurable, reproducible, and safe on consumer hardware. A good implementation records configuration, uses clear logs, saves checkpoints, and validates behavior with tests. When training a small transformer, data quality and consistent evaluation are more important than adding complexity too early.\n\n",
  "3443": "HVC-101 ",
  "3444": "HVC-101 lost ",
  "3445": "HVC-101 lost the R",
  "3446": "HVC-101 lost the RF",
  "3447": "HVC-101 lost the RF and ",
  "3448": "HVC-101 lost the RF and adopted ",
  "3449": "HVC-101 lost the RF and adopted which ",
  "3450": "put for ",
  "3451": "put for use in ",
  "3452": "put for use in North Americ",
  "3453": "put for use in North America and ",
  "3454": "put for use in North America and Europe",
  "3455": "NES",
  "3456": "itive ",
  "3457": "featured ",
  "3458": "mic",
  "3459": "microph",
  "3460": "RT",
  "3461": "suffer",
  "3462": "ed from the ",
  "3463": "so",
  "3464": ".\nQuestion: How many ",
  "3465": "like the ",
  "3466": "main idea of the passage?\nAnswer: Context: ",
  "3467": "?\nAssistant: Certo. Partiamo dall'obiettivo, poi guardiamo i dati e infine verifichiamo il risultato con un test semplice.\n\n",
  "3468": "self-attention serve a rendere il progetto più controllabile, più leggibile e più facile da migliorare.\n\n",
  "3469": "User: Fammi un esempio pratico su machine learning.\nAssistant: Certo. Partiamo dall'obiettivo, poi guardiamo i dati e infine verifichiamo il risultato con un test semplice.\n",
  "3470": "whit",
  "3471": "a sing",
  "3472": "surr",
  "3473": "sou",
  "3474": "ington",
  "3475": "Colum",
  "3476": "mainly ",
  "3477": "brick ",
  "3478": "variet",
  "3479": "ould",
  "3480": "construc",
  "3481": "St ",
  "3482": "financ",
  "3483": "financial ",
  "3484": "tric",
  "3485": "see ",
  "3486": "European ",
  "3487": "High",
  "3488": "ts",
  "3489": "atural ",
  "3490": "Citi",
  "3491": ". They ",
  "3492": "ienti",
  "3493": "Reser",
  "3494": "fish ",
  "3495": "dre",
  "3496": "Alain",
  "3497": "Scot",
  "3498": "youn",
  "3499": "male ",
  "3500": "win ",
  "3501": "genr",
  "3502": "y\nQuestion: What ",
  "3503": "succ",
  "3504": "ual",
  "3505": "Southampton",
  "3506": "thousand",
  "3507": "thousands of ",
  "3508": "viv",
  "3509": "ges",
  "3510": "start ",
  "3511": "College ",
  "3512": "University of ",
  "3513": "in 196",
  "3514": "associ",
  "3515": "associated ",
  "3516": "zion",
  "3517": "ision ",
  "3518": "improve ",
  "3519": "through",
  "3520": "read ",
  "3521": "journ",
  "3522": "journal",
  "3523": "Himachal P",
  "3524": "Himachal Pra",
  "3525": "Himachal Prades",
  "3526": "for?\nAnswer: ",
  "3527": "able in ",
  "3528": "Shim",
  "3529": "newspaper",
  "3530": "mar ",
  "3531": "and T",
  "3532": "wid",
  "3533": "widely ",
  "3534": "English",
  "3535": "ati",
  "3536": "Indian National ",
  "3537": "Indian National Congres",
  "3538": "thir",
  "3539": "won ",
  "3540": "December 2007",
  "3541": "BJP ",
  "3542": "seat",
  "3543": "vegetable ",
  "3544": "seed",
  "3545": "seeds, ",
  "3546": "hop",
  "3547": "io ",
  "3548": "is the largest ",
  "3549": "past",
  "3550": "cast",
  "3551": "development of ",
  "3552": "the b",
  "3553": "ships ",
  "3554": ".\nQuestion: Along with ",
  "3555": "?\nQuestion: What type of ",
  "3556": "cros",
  "3557": ", as well as ",
  "3558": "12",
  "3559": "mid-",
  "3560": "either by ",
  "3561": "either by un",
  "3562": "either by unnam",
  "3563": "either by unnamed and ",
  "3564": "either by unnamed and un",
  "3565": "either by unnamed and unatt",
  "3566": "either by unnamed and unattribut",
  "3567": "either by unnamed and unattributable ",
  "3568": "either by unnamed and unattributable sourc",
  "3569": "either by unnamed and unattributable sources, ",
  "3570": "either by unnamed and unattributable sources, or ",
  "3571": "either by unnamed and unattributable sources, or hear",
  "3572": "either by unnamed and unattributable sources, or hearsay ",
  "3573": "either by unnamed and unattributable sources, or hearsay account",
  "3574": "either by unnamed and unattributable sources, or hearsay accounts of ",
  "3575": "either by unnamed and unattributable sources, or hearsay accounts of what ",
  "3576": "either by unnamed and unattributable sources, or hearsay accounts of what named ",
  "3577": "either by unnamed and unattributable sources, or hearsay accounts of what named individu",
  "3578": "either by unnamed and unattributable sources, or hearsay accounts of what named individuals ",
  "3579": "either by unnamed and unattributable sources, or hearsay accounts of what named individuals had ",
  "3580": "– a ",
  "3581": "MacK",
  "3582": "MacKenz",
  "3583": "Harry ",
  "3584": "Harry Arn",
  "3585": "Harry Arnold",
  "3586": "pap",
  "3587": "paper ",
  "3588": "\nQuestion: Who was ",
  "3589": "front p",
  "3590": "estim",
  "3591": "in the city ",
  "3592": "er?\nAnswer: ",
  "3593": "July ",
  "3594": "vector",
  "3595": "rever",
  "3596": "minor",
  "3597": "laim ",
  "3598": "educ",
  "3599": "nother ",
  "3600": "wr",
  "3601": "benefited from ",
  "3602": "not be ",
  "3603": "punish",
  "3604": "ingly ",
  "3605": "to the compensation argument",
  "3606": "further ",
  "3607": "effect",
  "3608": "giant ",
  "3609": "campus",
  "3610": "George H",
  "3611": "George H. Brimh",
  "3612": "17 ",
  "3613": "purcha",
  "3614": "purchas",
  "3615": "cris",
  "3616": "taught ",
  "3617": "what year ",
  "3618": "Acad",
  "3619": "Academ",
  "3620": "ed with",
  "3621": "recei",
  "3622": "receive ",
  "3623": "Frankl",
  "3624": "Franklin ",
  "3625": "21",
  "3626": "tor",
  "3627": "sever",
  "3628": "several ",
  "3629": "changes ",
  "3630": "day",
  "3631": "cred",
  "3632": "time",
  "3633": "position",
  "3634": "nearly ",
  "3635": "student",
  "3636": "flu",
  "3637": "inten",
  "3638": "..",
  "3639": "victimized ",
  "3640": "in terms of ",
  "3641": "genocid",
  "3642": ". K",
  "3643": "short",
  "3644": "short-",
  "3645": "outbur",
  "3646": "define ",
  "3647": "as \"",
  "3648": "ordinary ",
  "3649": "mur",
  "3650": ", or ",
  "3651": "ings that ",
  "3652": "post",
  "3653": "achieve ",
  "3654": "Deb",
  "3655": "Kan",
  "3656": "Kany",
  "3657": "studi",
  "3658": "Isl",
  "3659": "2, ",
  "3660": "asser",
  "3661": "ward",
  "3662": "dies ",
  "3663": "award",
  "3664": ", was ",
  "3665": "Julian ",
  "3666": "Julian F",
  "3667": "Julian Fon",
  "3668": "Julian Fontan",
  "3669": "ed in 18",
  "3670": "songs ",
  "3671": "opus number",
  "3672": "alternative ",
  "3673": "reference ",
  "3674": "ryst",
  "3675": ".\nQuestion: The ",
  "3676": "number one ",
  "3677": "al, and ",
  "3678": "roman",
  "3679": "(19",
  "3680": "(198",
  "3681": "emergenc",
  "3682": "emergence of ",
  "3683": "metal ",
  "3684": "neural ",
  "3685": "tel",
  "3686": "dend",
  "3687": "speci",
  "3688": "targ",
  "3689": "growth con",
  "3690": "environment",
  "3691": "ination ",
  "3692": "oler",
  "3693": "living ",
  "3694": "Hein",
  "3695": "Heinr",
  "3696": "Heinrich ",
  "3697": "Heinrich An",
  "3698": "Heinrich Anton ",
  "3699": "Heinrich Anton de ",
  "3700": "\"symbios",
  "3701": "\"symbiosis",
  "3702": "\"symbiosis\" ",
  "3703": "?\nQuestion: What year did ",
  "3704": "varied ",
  "3705": "checkpoint serve a rendere il progetto più controllabile, più leggibile e più facile da migliorare.\n",
  "3706": "plantation",
  "3707": "force ",
  "3708": "state capital ",
  "3709": "state capital of ",
  "3710": "free people of color",
  "3711": "were in ",
  "3712": "% of the ",
  "3713": "slaves",
  "3714": "continued ",
  "3715": "?\nQuestion: What percentage of Charleston's ",
  "3716": "population were ",
  "3717": "lave rev",
  "3718": "lave revol",
  "3719": "plann",
  "3720": "ter, ",
  "3721": "tiviti",
  "3722": "abbre",
  "3723": "island ",
  "3724": "Pu",
  "3725": "Puer",
  "3726": "Puerto ",
  "3727": "Puerto Ric",
  "3728": "Puerto Rico ",
  "3729": "?\nQuestion: How far ",
  "3730": "chat mode",
  "3731": "chat mode.\nAssistant: In breve, ",
  "3732": "chat mode.\nAssistant: In breve, chat mo",
  "3733": "chat mode.\nAssistant: In breve, chat mode ",
  "3734": "draf",
  "3735": "Go ",
  "3736": "Go S",
  "3737": "Go Set ",
  "3738": "New York ",
  "3739": "Lee's ",
  "3740": "yer ",
  "3741": "last",
  "3742": ", and a ",
  "3743": "she was ",
  "3744": "the\n",
  "3745": "ting ",
  "3746": "Alice ",
  "3747": "acros",
  "3748": "pop ",
  "3749": "get ",
  "3750": "upon ",
  "3751": "una ",
  "3752": "like \"",
  "3753": "English - ",
  "3754": "rhotic",
  "3755": "es.\n",
  "3756": "imp",
  "3757": "ucle",
  "3758": "granulomas ",
  "3759": "lym",
  "3760": "lymph",
  "3761": "lymphocyt",
  "3762": "suppress",
  "3763": "side ",
  "3764": "norm",
  "3765": "macrophages ",
  "3766": "training local",
  "3767": "dataset",
  "3768": "dashboard",
  "3769": "tokenizer",
  "3770": "boarding ",
  "3771": "foster",
  "3772": "fri",
  "3773": "friend",
  "3774": ". W",
  "3775": "enness",
  "3776": "ennessy ",
  "3777": "ennessy Scholar",
  "3778": "Prince Ric",
  "3779": "Prince Richard",
  "3780": ", Duke of ",
  "3781": "Glou",
  "3782": "Glouc",
  "3783": "Gloucest",
  "3784": "Alexand",
  "3785": "Lord ",
  "3786": "Fre",
  "3787": "Freder",
  "3788": "Med",
  "3789": "famil",
  "3790": "pressure",
  "3791": "1960s and ",
  "3792": "adult contemporary ",
  "3793": "radio st",
  "3794": "radio station ",
  "3795": "demographic ",
  "3796": "satellite ",
  "3797": "standard",
  "3798": "incorporating ",
  "3799": ", N",
  "3800": "eline ",
  "3801": "Hum",
  "3802": "play ",
  "3803": "audi",
  "3804": "audienc",
  "3805": "cells, ",
  "3806": "research ",
  "3807": "elements ",
  "3808": "caused by ",
  "3809": "blem",
  "3810": "hyper",
  "3811": "hypersensi",
  "3812": "DS",
  "3813": "commerc",
  "3814": "A's ",
  "3815": "administ",
  "3816": "administr",
  "3817": "his mother",
  "3818": "visit",
  "3819": "and t",
  "3820": "My",
  "3821": "Myan",
  "3822": "al-Q",
  "3823": "al-Qa",
  "3824": "al-Qaed",
  "3825": "Armed ",
  "3826": "rebel",
  "3827": "hom",
  "3828": "scrip",
  "3829": "towards the ",
  "3830": "moved to ",
  "3831": "in 194",
  "3832": "enough ",
  "3833": "East ",
  "3834": "Atlantic C",
  "3835": "economic ",
  "3836": "lifest",
  "3837": "lifestyle ",
  "3838": "health",
  "3839": "physical ",
  "3840": "an of the ",
  "3841": "System",
  "3842": "lay ",
  "3843": "service ",
  "3844": "Philadelphia",
  "3845": "Triang",
  "3846": "Viet",
  "3847": "Vietnam",
  "3848": "Vietnam ",
  "3849": "in which ",
  "3850": "team",
  "3851": "football ",
  "3852": "on Terror",
  "3853": "allies ",
  "3854": "web browser",
  "3855": "UI",
  "3856": "UI b",
  "3857": "UI back",
  "3858": "UI backend",
  "3859": "net",
  "3860": "Network ",
  "3861": "begin to ",
  "3862": "2013 ",
  "3863": "CBS Sports Network",
  "3864": "CBSS",
  "3865": ", ES",
  "3866": ", ESP",
  "3867": "its work",
  "3868": "call center?\nQuestion: How many ",
  "3869": "did Dell ",
  "3870": "infra",
  "3871": "infrastruct",
  "3872": "industry ",
  "3873": "loss, ",
  "3874": "experiments ",
  "3875": "using ",
  "3876": "tem",
  "3877": "temper",
  "3878": "used for ",
  "3879": "is and ",
  "3880": "let",
  "3881": "20th centur",
  "3882": "Hispanic ",
  "3883": "their titular ",
  "3884": "breed",
  "3885": "Harv",
  "3886": "debates ",
  "3887": "quails ",
  "3888": "word 'gene",
  "3889": "Context: Context: ",
  "3890": "slow",
  "3891": "department ",
  "3892": "es. However, ",
  "3893": "showed ",
  "3894": "Polic",
  "3895": "Iv",
  "3896": "Ivory ",
  "3897": "Ivory Tower ",
  "3898": "scholar",
  "3899": "s?",
  "3900": "ran ",
  "3901": "centr",
  "3902": "lead",
  "3903": "operations ",
  "3904": "employees ",
  "3905": "described ",
  "3906": "atic ",
  "3907": "Sur",
  "3908": "\nQuestion: What was ",
  "3909": "uary ",
  "3910": "met ",
  "3911": "Stat",
  "3912": "Arch",
  "3913": "ro ",
  "3914": "Parolin",
  "3915": "working ",
  "3916": "a, and ",
  "3917": "raising ",
  "3918": "Fa",
  "3919": "regarding ",
  "3920": ". It is ",
  "3921": "viol",
  "3922": "130",
  "3923": "an 2014",
  "3924": "discus",
  "3925": "Syria ",
  "3926": "as of ",
  "3927": "l and ",
  "3928": "can",
  "3929": ".\" This ",
  "3930": "inqu",
  "3931": "Russia ",
  "3932": "propos",
  "3933": "elcom",
  "3934": "accept",
  "3935": "Syria's ",
  "3936": "midd",
  "3937": "destr",
  "3938": "destruc",
  "3939": "Aug",
  "3940": "Augus",
  "3941": "August ",
  "3942": ".\nQuestion: Who was ",
  "3943": "upper ",
  "3944": "upper hous",
  "3945": "can the ",
  "3946": "against the ",
  "3947": "parliment",
  "3948": "?\nQuestion: What does the ",
  "3949": "dom ",
  "3950": "latter ",
  "3951": "opposition of ",
  "3952": "jur",
  "3953": "dic",
  "3954": "resign",
  "3955": "er and his ",
  "3956": "person ",
  "3957": "to reques",
  "3958": "to request ",
  "3959": "to request a ",
  "3960": "ling ",
  "3961": "in some ",
  "3962": "\nQuestion: I",
  "3963": "happen",
  "3964": "to diss",
  "3965": "olve ",
  "3966": "request",
  "3967": "in the c",
  "3968": ". In the ",
  "3969": "example, the ",
  "3970": "entire ",
  "3971": "Tao",
  "3972": "Taois",
  "3973": "Taoiseach ",
  "3974": "stitution ",
  "3975": "ecutive Council ",
  "3976": "assign",
  "3977": "have the ",
  "3978": "prior to ",
  "3979": "Prime Minister ",
  "3980": "ected to ",
  "3981": "spill ",
  "3982": "spill mo",
  "3983": "Ton",
  "3984": "ard and ",
  "3985": "udd",
  "3986": "in Australia",
  "3987": "stop",
  "3988": "stopp",
  "3989": "the Russi",
  "3990": "Ha",
  "3991": "ala",
  "3992": "common",
  "3993": "commonly ",
  "3994": "Go",
  "3995": "Govern",
  "3996": "Israel",
  "3997": "ania ",
  "3998": "founded",
  "3999": "free Slavic ",
  "4000": "free Slavic states ",
  "4001": "in the world",
  "4002": "an Empire, Serb",
  "4003": "Montenegro",
  "4004": "was also ",
  "4005": "tom",
  "4006": "ro-",
  "4007": "ire of ",
  "4008": "Cro",
  "4009": "Croat",
  "4010": "Slo",
  "4011": "Sloven",
  "4012": "set ",
  "4013": "ended",
  "4014": "independent ",
  "4015": ", the Sec",
  "4016": ", the Second ",
  "4017": "lived in ",
  "4018": "During ",
  "4019": "World War II",
  "4020": "Gener",
  "4021": "population of ",
  "4022": "Europ",
  "4023": "Europe ",
  "4024": "to create ",
  "4025": "archa",
  "4026": "archae",
  "4027": "depic",
  "4028": "stringed in",
  "4029": "stringed instr",
  "4030": "Gu",
  "4031": "Vis",
  "4032": "compr",
  "4033": "painting",
  "4034": "ulp",
  "4035": "carv",
  "4036": "carving",
  "4037": "Indian Arts and C",
  "4038": "Indian Arts and Craf",
  "4039": "Indian Arts and Crafts ",
  "4040": "Indian Arts and Crafts Act of ",
  "4041": "Indian Arts and Crafts Act of 19",
  "4042": "quiring ",
  "4043": "enro",
  "4044": "enroll",
  "4045": "ally recognized ",
  "4046": ". To ",
  "4047": "ongo",
  "4048": "ongoing ",
  "4049": ", Al",
  "4050": "created ",
  "4051": "2005",
  "4052": "known as ",
  "4053": "); ",
  "4054": "people who ",
  "4055": "?\n\n",
  "4056": "gradient ",
  "4057": "gradient checkpoint",
  "4058": "gradient checkpointing ",
  "4059": "gradient checkpointing re",
  "4060": "gradient checkpointing reduc",
  "4061": "gradient checkpointing reduces ",
  "4062": "gradient checkpointing reduces VRA",
  "4063": "gradient checkpointing reduces VRAM ",
  "4064": "gradient checkpointing reduces VRAM by ",
  "4065": "gradient checkpointing reduces VRAM by re",
  "4066": "gradient checkpointing reduces VRAM by recomput",
  "4067": "gradient checkpointing reduces VRAM by recomputing ",
  "4068": "gradient checkpointing reduces VRAM by recomputing activ",
  "4069": "gradient checkpointing reduces VRAM by recomputing activations ",
  "4070": "gradient checkpointing reduces VRAM by recomputing activations during ",
  "4071": "gradient checkpointing reduces VRAM by recomputing activations during back",
  "4072": "gradient checkpointing reduces VRAM by recomputing activations during backward ",
  "4073": "gradient checkpointing reduces VRAM by recomputing activations during backward pass",
  "4074": "gradient checkpointing reduces VRAM by recomputing activations during backward pass. In MiniLLM this concept is used to keep local training measurable, reproducible, and safe on consumer hardware. A good implementation records configuration, uses clear logs, saves checkpoints, and validates behavior with tests. When training a small transformer, data quality and consistent evaluation are more important than adding complexity too early.\n\n",
  "4075": "Kingdom of the ",
  "4076": "Kingdom of the Netherland",
  "4077": "is also ",
  "4078": "Republic ",
  "4079": "Bat",
  "4080": "exist",
  "4081": "public",
  "4082": "resp",
  "4083": "coun",
  "4084": "Holy Rom",
  "4085": "county of Fl",
  "4086": "county of Flan",
  "4087": "county of Flander",
  "4088": "under the Kingdom of ",
  "4089": "e.\nQuestion: ",
  "4090": "of which ",
  "4091": "considered ",
  "4092": "part of the ",
  "4093": "Roman ",
  "4094": "consist ",
  "4095": "county ",
  "4096": "?\nQuestion: Un",
  "4097": "century ",
  "4098": "languages share ",
  "4099": "French",
  "4100": "numerous ",
  "4101": "en't ",
  "4102": "For ",
  "4103": "body ",
  "4104": "parts ",
  "4105": "each other",
  "4106": "e\" and \"",
  "4107": "esser",
  "4108": "essere",
  "4109": "forming comp",
  "4110": "forming compound ",
  "4111": "forming compound tens",
  "4112": "avoir",
  "4113": "away ",
  "4114": "speak",
  "4115": ".[citation needed",
  "4116": "\"?\nQuestion: What ",
  "4117": "word is similar to the ",
  "4118": "word is similar to the Italian word ",
  "4119": "ian",
  "4120": "long",
  "4121": "Instruction: Spiega la self-attention in modo semplice.\nAssistant: ",
  "4122": "Instruction: Spiega la self-attention in modo semplice.\nAssistant: L",
  "4123": "Instruction: Spiega la self-attention in modo semplice.\nAssistant: La self-attention ",
  "4124": "Instruction: Spiega la self-attention in modo semplice.\nAssistant: La self-attention per",
  "4125": "Instruction: Spiega la self-attention in modo semplice.\nAssistant: La self-attention permet",
  "4126": "Instruction: Spiega la self-attention in modo semplice.\nAssistant: La self-attention permette ",
  "4127": "Instruction: Spiega la self-attention in modo semplice.\nAssistant: La self-attention permette al ",
  "4128": "Instruction: Spiega la self-attention in modo semplice.\nAssistant: La self-attention permette al modello ",
  "4129": "Instruction: Spiega la self-attention in modo semplice.\nAssistant: La self-attention permette al modello di ",
  "4130": "Instruction: Spiega la self-attention in modo semplice.\nAssistant: La self-attention permette al modello di cap",
  "4131": "Instruction: Spiega la self-attention in modo semplice.\nAssistant: La self-attention permette al modello di capir",
  "4132": "Instruction: Spiega la self-attention in modo semplice.\nAssistant: La self-attention permette al modello di capire qu",
  "4133": "Instruction: Spiega la self-attention in modo semplice.\nAssistant: La self-attention permette al modello di capire quali ",
  "4134": "Instruction: Spiega la self-attention in modo semplice.\nAssistant: La self-attention permette al modello di capire quali par",
  "4135": "Instruction: Spiega la self-attention in modo semplice.\nAssistant: La self-attention permette al modello di capire quali parole ",
  "4136": "Instruction: Spiega la self-attention in modo semplice.\nAssistant: La self-attention permette al modello di capire quali parole son",
  "4137": "Instruction: Spiega la self-attention in modo semplice.\nAssistant: La self-attention permette al modello di capire quali parole sono ",
  "4138": "Instruction: Spiega la self-attention in modo semplice.\nAssistant: La self-attention permette al modello di capire quali parole sono più ",
  "4139": "Instruction: Spiega la self-attention in modo semplice.\nAssistant: La self-attention permette al modello di capire quali parole sono più import",
  "4140": "Instruction: Spiega la self-attention in modo semplice.\nAssistant: La self-attention permette al modello di capire quali parole sono più importan",
  "4141": "Instruction: Spiega la self-attention in modo semplice.\nAssistant: La self-attention permette al modello di capire quali parole sono più importanti ",
  "4142": "Instruction: Spiega la self-attention in modo semplice.\nAssistant: La self-attention permette al modello di capire quali parole sono più importanti nel ",
  "4143": "Instruction: Spiega la self-attention in modo semplice.\nAssistant: La self-attention permette al modello di capire quali parole sono più importanti nel contesto",
  "4144": "aste ",
  "4145": "aste produc",
  "4146": "to ex",
  "4147": "ensive ",
  "4148": "uranium tile ",
  "4149": "uranium tile glaz",
  "4150": "use, ",
  "4151": "green",
  "4152": ", ma",
  "4153": "is another ",
  "4154": "uranium ore",
  "4155": "-the",
  "4156": "devic",
  "4157": "wasn't ",
  "4158": "X-",
  "4159": "Re",
  "4160": "Reactor ",
  "4161": "abor",
  "4162": "former",
  "4163": "formerly ",
  "4164": "reactor ",
  "4165": "o F",
  "4166": "ago ",
  "4167": "e) and ",
  "4168": "built ",
  "4169": "near ",
  "4170": ". In",
  "4171": "improv",
  "4172": "it to ",
  "4173": "er, the ",
  "4174": "town ",
  "4175": "of A",
  "4176": "generating ",
  "4177": "demand ",
  "4178": "demand for ",
  "4179": "offer",
  "4180": "when",
  "4181": "greater ",
  "4182": "ring ",
  "4183": "s have seen ",
  "4184": "fields ",
  "4185": "recent year",
  "4186": "promo",
  "4187": "colony of ",
  "4188": "Sir ",
  "4189": "day, ",
  "4190": "William ",
  "4191": "Victor",
  "4192": ". During the ",
  "4193": "cities",
  "4194": "served ",
  "4195": "mak",
  "4196": "vary ",
  "4197": ", an ",
  "4198": "groups ",
  "4199": "s include ",
  "4200": "usag",
  "4201": "secular ",
  "4202": "Histor",
  "4203": "Historical definitions of ",
  "4204": "been bas",
  "4205": "into the ",
  "4206": "Bab",
  "4207": "Babyl",
  "4208": "tations of ",
  "4209": "Tan",
  "4210": ", such as ",
  "4211": "sag",
  "4212": "marriage ",
  "4213": "cause ",
  "4214": "ild ",
  "4215": "i.",
  "4216": "i.e",
  "4217": "i.e., ",
  "4218": ") of ",
  "4219": "yp",
  "4220": "tian ",
  "4221": "is \"",
  "4222": "ves and ",
  "4223": ". Since ",
  "4224": "anti-",
  "4225": "movement ",
  "4226": "18th and ",
  "4227": "ed into the ",
  "4228": "status ",
  "4229": "offspring of ",
  "4230": "offspring of mixed marriages ",
  "4231": "offspring of mixed marriages was ",
  "4232": "offspring of mixed marriages was determin",
  "4233": "offspring of mixed marriages was determined ",
  "4234": "ally in the ",
  "4235": "ally in the B",
  "4236": "ally in the Bible",
  "4237": "change in ",
  "4238": "change in Mishna",
  "4239": "change in Mishnaic ",
  "4240": "change in Mishnaic tim",
  "4241": "may have been ",
  "4242": "ed to other ",
  "4243": "union ",
  "4244": "influ",
  "4245": "dict",
  "4246": "dictated that ",
  "4247": "dictated that when ",
  "4248": "dictated that when a ",
  "4249": "dictated that when a par",
  "4250": "dictated that when a parent ",
  "4251": "dictated that when a parent could not ",
  "4252": "dictated that when a parent could not contr",
  "4253": "dictated that when a parent could not contract ",
  "4254": "dictated that when a parent could not contract a ",
  "4255": "dictated that when a parent could not contract a legal ",
  "4256": "dictated that when a parent could not contract a legal marriag",
  "4257": "dictated that when a parent could not contract a legal marriage, offspr",
  "4258": "lack of ",
  "4259": "is the home ",
  "4260": "Non-",
  "4261": "Cent",
  "4262": "Ins",
  "4263": "have a ",
  "4264": "Rock ",
  "4265": "2) ",
  "4266": "student ",
  "4267": "Dance ",
  "4268": "Dance Mar",
  "4269": "Dance Marath",
  "4270": "13 ",
  "4271": "doll",
  "4272": "s in its ",
  "4273": "children's char",
  "4274": "children's chariti",
  "4275": "out of ",
  "4276": "wind",
  "4277": "ga",
  "4278": "mad",
  "4279": "madillo D",
  "4280": "music and ",
  "4281": "North",
  "4282": "fres",
  "4283": "fresh",
  "4284": "orient",
  "4285": "We",
  "4286": "money ",
  "4287": "popular ",
  "4288": "?\nAnswer: W",
  "4289": "es?\nQuestion: What do ",
  "4290": "accent",
  "4291": "unctu",
  "4292": "unctuation, ",
  "4293": "bit",
  "4294": "Yale",
  "4295": "else ",
  "4296": "doing ",
  "4297": "fundam",
  "4298": "fundamental ",
  "4299": "y. The ",
  "4300": "icated ",
  "4301": "criticized ",
  "4302": "\"I ",
  "4303": "don't like ",
  "4304": "don't like that ",
  "4305": "anyth",
  "4306": "ing that ",
  "4307": "These ",
  "4308": "quot",
  "4309": "physic",
  "4310": "Feynman diagrams ",
  "4311": "explain",
  "4312": "is often ",
  "4313": "opponent",
  "4314": "\"\nQuestion: What ",
  "4315": "to?\nQuestion: What ",
  "4316": "half ",
  "4317": "You ",
  "4318": "e.\n\nContext: ",
  "4319": "confession",
  "4320": "aith",
  "4321": "considering them to be ",
  "4322": "considering them to be cre",
  "4323": "considering them to be creed",
  "4324": "doctrin",
  "4325": "on to ",
  "4326": "Baptists are ",
  "4327": "system ",
  "4328": "played a ",
  "4329": "role in ",
  "4330": "encouraging ",
  "4331": "Most ",
  "4332": "doctrine",
  "4333": "doctrine?\nQuestion: Baptists have ",
  "4334": "e.\nQuestion: Wh",
  "4335": "group of ",
  "4336": "es; ",
  "4337": "son of ",
  "4338": "thing",
  "4339": "ly in ",
  "4340": "include the ",
  "4341": "Baptist Con",
  "4342": "Baptist Conf",
  "4343": "shire ",
  "4344": "ground ",
  "4345": "DNA replication is ",
  "4346": "cell must ",
  "4347": "copi",
  "4348": "genome ",
  "4349": "distinct ",
  "4350": "membrane-",
  "4351": "membrane-b",
  "4352": "membrane-bound ",
  "4353": "aryot",
  "4354": "occurs ",
  "4355": "relativ",
  "4356": "relatively ",
  "4357": "simple ",
  "4358": "binary fis",
  "4359": "ates to ",
  "4360": "cytoplas",
  "4361": "cell division ",
  "4362": "pha",
  "4363": "molecular ",
  "4364": "icture",
  "4365": "edul",
  "4366": "stion: ",
  "4367": "stion: The ",
  "4368": "stion: The HVC-101 lost the RF and adopted which ",
  "4369": "stion: The HVC-101 lost the RF and adopted which out",
  "4370": "stion: The HVC-101 lost the RF and adopted which output for use in North America and Europe",
  "4371": "vide",
  "4372": "etary ",
  "4373": "conn",
  "4374": "d in",
  "4375": "controller",
  "4376": "inste",
  "4377": "featuring ",
  "4378": "Famicom",
  "4379": "Famicom, the ",
  "4380": "controllers ",
  "4381": "tical ",
  "4382": "second controller ",
  "4383": "microphone ",
  "4384": "that was ",
  "4385": "Famicom ",
  "4386": "possessed the ",
  "4387": " but",
  "4388": "aliz",
  "4389": "in order to ",
  "4390": "kill ",
  "4391": "certain ",
  "4392": "eld",
  "4393": "machine learning?\nAssistant: Certo. Partiamo dall'obiettivo, poi guardiamo i dati e infine verifichiamo il risultato con un test semplice.\n\n",
  "4394": "self-atten",
  "4395": "self-attention",
  "4396": "self-attention.\nAssistant: In breve, ",
  "4397": "characterized by ",
  "4398": "\nQuestion: What",
  "4399": "reason ",
  "4400": "characteristic ",
  "4401": "City of London ",
  "4402": "prov",
  "4403": "surrounding ",
  "4404": "Great ",
  "4405": "originated ",
  "4406": "ends of ",
  "4407": "Park ",
  "4408": "son's ",
  "4409": "ised ",
  "4410": "foc",
  "4411": "central ",
  "4412": "stock ",
  "4413": "or a ",
  "4414": "older ",
  "4415": "-ris",
  "4416": "-rise ",
  "4417": "buildings. ",
  "4418": "sky",
  "4419": "skysc",
  "4420": "skyscra",
  "4421": "skyscraper",
  "4422": "road",
  "4423": "One ",
  "4424": "financial distric",
  "4425": "and Can",
  "4426": "restric",
  "4427": "of\n",
  "4428": "athed",
  "4429": "historic ",
  "4430": "thel",
  "4431": "ess, ",
  "4432": "there are ",
  "4433": "Shard ",
  "4434": "Shard London ",
  "4435": "Shard London Bri",
  "4436": "Shard London Brid",
  "4437": "allest ",
  "4438": "may be ",
  "4439": "ham",
  "4440": "members have ",
  "4441": "Sc",
  "4442": "Nature ",
  "4443": "Nature Reser",
  "4444": "life ",
  "4445": "a?\nQuestion: ",
  "4446": "percent of ",
  "4447": "live ",
  "4448": "o\n\n",
  "4449": "ontest",
  "4450": "ontestant ",
  "4451": "ontestant suffer",
  "4452": "ontestant suffered from ",
  "4453": "ontestant suffered from ul",
  "4454": "ontestant suffered from ulcer",
  "4455": "ontestant suffered from ulcerative ",
  "4456": "ontestant suffered from ulcerative col",
  "4457": "ontestant suffered from ulcerative coliti",
  "4458": "Cas",
  "4459": "Top ",
  "4460": "Tosc",
  "4461": "Toscan",
  "4462": "expected",
  "4463": "eliminated ",
  "4464": "finish",
  "4465": "former ",
  "4466": "contest",
  "4467": "came ",
  "4468": "Laur",
  "4469": "Lauren ",
  "4470": "Lauren Alain",
  "4471": "Scott",
  "4472": "Scotty M",
  "4473": "Scotty McCreer",
  "4474": "May ",
  "4475": "youngest ",
  "4476": "four",
  "4477": "mal",
  "4478": "le, ",
  "4479": "Do",
  "4480": ", C",
  "4481": "to reach ",
  "4482": "on the US ",
  "4483": "ful ",
  "4484": "on the Billboard ",
  "4485": "?\nQuestion: Who was the ",
  "4486": "s?\n\n",
  "4487": "how many people ",
  "4488": "architecture ",
  "4489": "surviv",
  "4490": "level",
  "4491": "traff",
  "4492": "traffic ",
  "4493": "led to ",
  "4494": "wall",
  "4495": "a large ",
  "4496": "?\nA ",
  "4497": "Royal Char",
  "4498": "University College ",
  "4499": "University College at ",
  "4500": "University College at High",
  "4501": "University College at Highfiel",
  "4502": "becom",
  "4503": "d?\nAnswer: ",
  "4504": "\nQuestion: When did ",
  "4505": "a c",
  "4506": "?\nQuestion: In what year did the ",
  "4507": "following the ",
  "4508": "that it ",
  "4509": "ancient ",
  "4510": "along with ",
  "4511": "zioni ",
  "4512": "User: Riassumi in due frasi il concetto di fine-tuning.\nAssistant: In breve, fine-tuning ",
  "4513": "User: Riassumi in due frasi il concetto di fine-tuning.\nAssistant: In breve, fine-tuning serve a rendere il progetto più controllabile, più leggibile e più facile da migliorare.\n",
  "4514": "widel",
  "4515": "has an ",
  "4516": "Himachal Pradesh",
  "4517": "newspapers ",
  "4518": "reach ",
  "4519": "available in ",
  "4520": "la, ",
  "4521": "ya ",
  "4522": "Div",
  "4523": "remo",
  "4524": "har",
  "4525": "Part",
  "4526": "third ",
  "4527": "Virb",
  "4528": "Virbhad",
  "4529": "Virbhadra ",
  "4530": "Virbhadra Sing",
  "4531": "ections ",
  "4532": "lands",
  "4533": "landsli",
  "4534": "of the 6",
  "4535": "of the 68 ",
  "4536": "of the 68 seat",
  "4537": "Pre",
  "4538": "Prem ",
  "4539": "Prem K",
  "4540": "Prem Kum",
  "4541": "Prem Kumar ",
  "4542": "Prem Kumar D",
  "4543": "Prem Kumar Dhum",
  "4544": "swor",
  "4545": "sworn ",
  "4546": "Chief ",
  "4547": "state of ",
  "4548": "?\nQuestion: When did the ",
  "4549": "deficient ",
  "4550": "seed pot",
  "4551": "ging",
  "4552": "mush",
  "4553": "mushroom",
  "4554": "mushrooms, ",
  "4555": "hops, ",
  "4556": "oliv",
  "4557": "Kul",
  "4558": "Kullu",
  "4559": " and La",
  "4560": "producing ",
  "4561": "producing district ",
  "4562": "producing district in the ",
  "4563": "producing district in the state",
  "4564": "e.\nQuestion: What ",
  "4565": "states that ",
  "4566": "addition ",
  "4567": "distingu",
  "4568": "techn",
  "4569": "ology, ",
  "4570": "included the ",
  "4571": "sail",
  "4572": "-po",
  "4573": "during this ",
  "4574": "military ",
  "4575": "domin",
  "4576": "cav",
  "4577": "sb",
  "4578": "sbow",
  "4579": "known in ",
  "4580": "13",
  "4581": "led to the ",
  "4582": "although ",
  "4583": "tions either by unnamed and unattributable sources, or hearsay accounts of what named individuals had ",
  "4584": "tions either by unnamed and unattributable sources, or hearsay accounts of what named individuals had said ",
  "4585": "tions either by unnamed and unattributable sources, or hearsay accounts of what named individuals had said – a ",
  "4586": "tions either by unnamed and unattributable sources, or hearsay accounts of what named individuals had said – a fact ",
  "4587": "tions either by unnamed and unattributable sources, or hearsay accounts of what named individuals had said – a fact made ",
  "4588": "tions either by unnamed and unattributable sources, or hearsay accounts of what named individuals had said – a fact made clear ",
  "4589": "tions either by unnamed and unattributable sources, or hearsay accounts of what named individuals had said – a fact made clear to ",
  "4590": "tions either by unnamed and unattributable sources, or hearsay accounts of what named individuals had said – a fact made clear to MacKenz",
  "4591": "tions either by unnamed and unattributable sources, or hearsay accounts of what named individuals had said – a fact made clear to MacKenzi",
  "4592": "tions either by unnamed and unattributable sources, or hearsay accounts of what named individuals had said – a fact made clear to MacKenzie by ",
  "4593": "tions either by unnamed and unattributable sources, or hearsay accounts of what named individuals had said – a fact made clear to MacKenzie by Harry Arnold",
  "4594": "tions either by unnamed and unattributable sources, or hearsay accounts of what named individuals had said – a fact made clear to MacKenzie by Harry Arnold, the ",
  "4595": "tions either by unnamed and unattributable sources, or hearsay accounts of what named individuals had said – a fact made clear to MacKenzie by Harry Arnold, the re",
  "4596": "tions either by unnamed and unattributable sources, or hearsay accounts of what named individuals had said – a fact made clear to MacKenzie by Harry Arnold, the repor",
  "4597": "tions either by unnamed and unattributable sources, or hearsay accounts of what named individuals had said – a fact made clear to MacKenzie by Harry Arnold, the reporter ",
  "4598": "tions either by unnamed and unattributable sources, or hearsay accounts of what named individuals had said – a fact made clear to MacKenzie by Harry Arnold, the reporter who ",
  "4599": "tions either by unnamed and unattributable sources, or hearsay accounts of what named individuals had said – a fact made clear to MacKenzie by Harry Arnold, the reporter who wrote the ",
  "4600": "tions either by unnamed and unattributable sources, or hearsay accounts of what named individuals had said – a fact made clear to MacKenzie by Harry Arnold, the reporter who wrote the stor",
  "4601": "tions either by unnamed and unattributable sources, or hearsay accounts of what named individuals had said – a fact made clear to MacKenzie by Harry Arnold, the reporter who wrote the story",
  "4602": "cket",
  "4603": "cr",
  "4604": "where the ",
  "4605": "thre",
  "4606": "55",
  "4607": "daily sal",
  "4608": "poor",
  "4609": "25 ",
  "4610": "ei ",
  "4611": "aired in ",
  "4612": "those who ",
  "4613": "simpl",
  "4614": "justic",
  "4615": "front pag",
  "4616": "Liverpool ",
  "4617": "2008",
  "4618": "given to ",
  "4619": "value ",
  "4620": "relev",
  "4621": "relevant ",
  "4622": "reverse ",
  "4623": "claim ",
  "4624": "resulting ",
  "4625": "form of discrimination",
  "4626": "ance in ",
  "4627": "argument against ",
  "4628": "?\nQuestion: What do ",
  "4629": "discrimination ",
  "4630": "prefer",
  "4631": "preferenti",
  "4632": "preferential ",
  "4633": "harm",
  "4634": "ment for ",
  "4635": "ogic",
  "4636": ". In ad",
  "4637": ". In addition",
  "4638": "punished for ",
  "4639": "\nQuestion: In the ",
  "4640": "who should ",
  "4641": "relation ",
  "4642": "ry and ",
  "4643": "opposition ",
  "4644": "had not ",
  "4645": "ator and ",
  "4646": "ought ",
  "4647": "theory of ",
  "4648": "emed ",
  "4649": "scienti",
  "4650": ". J",
  "4651": "h F",
  "4652": "Church ",
  "4653": "a \"",
  "4654": "ess and ",
  "4655": "BYU ",
  "4656": "High School",
  "4657": "replac",
  "4658": "class of ",
  "4659": "At ",
  "4660": "used the ",
  "4661": "George B",
  "4662": "ed?\nQuestion: How ",
  "4663": "appoint",
  "4664": ", the school ",
  "4665": "accred",
  "4666": "Cali",
  "4667": "Califor",
  "4668": "Californ",
  "4669": ". When ",
  "4670": "did not ",
  "4671": "Air ",
  "4672": "Og",
  "4673": "overs",
  "4674": "a state or its ",
  "4675": "a state or its ag",
  "4676": "groups are defined ",
  "4677": "groups are defined primarily ",
  "4678": "groups are defined primarily in terms of ",
  "4679": "groups are defined primarily in terms of their ",
  "4680": "al characteristic",
  "4681": "ethnicity, religion ",
  "4682": "ethnicity, religion or ",
  "4683": "ethnicity, religion or national",
  "4684": "Harff and Gurr ",
  "4685": "differenti",
  "4686": "ate between ",
  "4687": "position ",
  "4688": "ates, ",
  "4689": "tion between ",
  "4690": "short-liv",
  "4691": "short-lived ",
  "4692": "short-lived outbur",
  "4693": "short-lived outbursts ",
  "4694": "Harff ",
  "4695": "ation and ",
  "4696": "ution of ",
  "4697": "Rummel",
  "4698": "murder ",
  "4699": "meaning of genocide ",
  "4700": "reven",
  "4701": "non-kill",
  "4702": "ings of ",
  "4703": "otherw",
  "4704": "avoid ",
  "4705": "writ",
  "4706": "due to ",
  "4707": "ed in which ",
  "4708": "CP",
  "4709": "perform",
  "4710": "808s & Heartbreak ",
  "4711": "music, ",
  "4712": "off ",
  "4713": "musical ",
  "4714": "journalist ",
  "4715": "Matthe",
  "4716": "Matthew ",
  "4717": "Matthew T",
  "4718": "Matthew Tramm",
  "4719": "West",
  "4720": "versi",
  "4721": "following ",
  "4722": "throughout ",
  "4723": "a R",
  "4724": "unpublished ",
  "4725": "pian",
  "4726": "eight ",
  "4727": "185",
  "4728": "Chopin ",
  "4729": "Op. ",
  "4730": "Op. 7",
  "4731": "Chopin",
  "4732": "Chopin's ",
  "4733": "nations ",
  "4734": "Kryst",
  "4735": "Krysty",
  "4736": "Pi",
  "4737": "ody ",
  "4738": "New W",
  "4739": "New Wave ",
  "4740": "New Wave of ",
  "4741": "Heav",
  "4742": "Heavy M",
  "4743": "Heavy Met",
  "4744": "in 198",
  "4745": "Def Leppard ",
  "4746": "(1983",
  "4747": "Fo",
  "4748": "reach",
  "4749": "40",
  "4750": "ated, ",
  "4751": "glam ",
  "4752": "glam metal ",
  "4753": "ene",
  "4754": "White ",
  "4755": "ion, ",
  "4756": "iet ",
  "4757": "the first ",
  "4758": "mainst",
  "4759": "mainstre",
  "4760": "mainstream ",
  "4761": "sequ",
  "4762": "ue's ",
  "4763": "encephalon ",
  "4764": "encephalon (which ",
  "4765": "encephalon (which will ",
  "4766": "encephalon (which will cont",
  "4767": "encephalon (which will conta",
  "4768": "encephalon (which will contain the ",
  "4769": "cere",
  "4770": "my",
  "4771": "sometim",
  "4772": "sometimes ",
  "4773": "fill",
  "4774": "vesic",
  "4775": "encephalon",
  "4776": "contains the ",
  "4777": "nce ",
  "4778": "axon ",
  "4779": "specific ",
  "4780": "target",
  "4781": "recept",
  "4782": "receptor",
  "4783": "cellular ",
  "4784": "a particular ",
  "4785": "services ",
  "4786": "took place ",
  "4787": "private churches",
  "4788": "persec",
  "4789": "toler",
  "4790": "place in ",
  "4791": "ν",
  "4792": "ς",
  "4793": "\") ",
  "4794": "Albert B",
  "4795": "Albert Bern",
  "4796": "Albert Bernhard ",
  "4797": "symbiosis ",
  "4798": "living together ",
  "4799": ") to ",
  "4800": "mutual",
  "4801": "Ger",
  "4802": "Heinrich Anton de B",
  "4803": "Heinrich Anton de Bary ",
  "4804": "organism",
  "4805": "nationality ",
  "4806": "ver ",
  "4807": ", comm",
  "4808": "ology and ",
  "4809": "ology ",
  "4810": "checkpoint.\nAssistant: In breve, ",
  "4811": "checkpoint.\nAssistant: In breve, checkpoint serve a rendere il progetto più controllabile, più leggibile e più facile da migliorare.\n",
  "4812": "Revolution",
  "4813": "cotton gin ",
  "4814": "became South Carolin",
  "4815": "became South Carolina's ",
  "4816": "became South Carolina's major ",
  "4817": "became South Carolina's major ex",
  "4818": "became South Carolina's major export ",
  "4819": "became South Carolina's major export com",
  "4820": "became South Carolina's major export commod",
  "4821": "regi",
  "4822": "cotton plantation",
  "4823": "primary labor ",
  "4824": "worker",
  "4825": "Charleston ",
  "4826": "60",
  "4827": "free people of color ",
  "4828": "owned ",
  "4829": "?\nB",
  "4830": "aining ",
  "4831": "majority",
  "4832": "lave revolt ",
  "4833": "planned by ",
  "4834": "planned by D",
  "4835": "planned by Den",
  "4836": "planned by Denmark ",
  "4837": "they were ",
  "4838": "Vesey ",
  "4839": ". Another ",
  "4840": "ed. ",
  "4841": "collectiv",
  "4842": "Coll",
  "4843": "Saint-Barthélemy",
  "4844": "abbrevi",
  "4845": "35 ",
  "4846": "kil",
  "4847": "kilom",
  "4848": "kilomet",
  "4849": "kilometres (",
  "4850": "St. K",
  "4851": "west ",
  "4852": "Saint-Barthélemy ",
  "4853": "?\nQuestion: How far is ",
  "4854": "Swed",
  "4855": "Swedish ",
  "4856": "end of the ",
  "4857": "coat of ",
  "4858": "coat of arm",
  "4859": "chat mode.\nAssistant: In breve, chat mode serve a rendere il progetto più controllabile, più leggibile e più facile da migliorare.\n",
  "4860": "draft of ",
  "4861": "Go Set a ",
  "4862": "Watchman",
  "4863": "father",
  "4864": "cript ",
  "4865": "many of the ",
  "4866": "Mockingbir",
  "4867": "two",
  "4868": "James ",
  "4869": "convers",
  "4870": "”",
  "4871": "mind ",
  "4872": "her fe",
  "4873": "sle",
  "4874": "would be ",
  "4875": "trou",
  "4876": "sud",
  "4877": "sudden",
  "4878": "suddenly ",
  "4879": "abbit ",
  "4880": "very",
  "4881": "thin",
  "4882": "hear ",
  "4883": "occurr",
  "4884": "atur",
  "4885": "a\n",
  "4886": "fl",
  "4887": "rab",
  "4888": "to see ",
  "4889": "mom",
  "4890": "coming ",
  "4891": "well",
  "4892": "ed that ",
  "4893": "shel",
  "4894": "voic",
  "4895": ".\"\n",
  "4896": ".\"\n*",
  "4897": "New York City ",
  "4898": "recogniz",
  "4899": "dialect",
  "4900": "a r",
  "4901": "ought",
  "4902": "Southern ",
  "4903": "Pri",
  "4904": "seafood ",
  "4905": "farming ",
  "4906": "eat",
  "4907": "limit",
  "4908": "\n\nInstruction: ",
  "4909": "AD",
  "4910": "mult",
  "4911": "multin",
  "4912": "multinucle",
  "4913": "dendri",
  "4914": "dendritic ",
  "4915": "dendritic cell",
  "4916": "antigen to ",
  "4917": "antigen to lymphocyt",
  "4918": "normal ",
  "4919": "necros",
  "4920": "case",
  "4921": "TB",
  "4922": "infected ",
  "4923": "s when ",
  "4924": "ump ",
  "4925": "hin",
  "4926": "join",
  "4927": "ip",
  "4928": "training locale.\nAssistant: ",
  "4929": "training locale.\nAssistant: In breve, ",
  "4930": "training locale.\nAssistant: In breve, training loc",
  "4931": "training locale.\nAssistant: In breve, training locale ",
  "4932": "dataset?\nAssistant: Certo. Partiamo dall'obiettivo, poi guardiamo i dati e infine verifichiamo il risultato con un test semplice.\n",
  "4933": "dashboard?\nAssistant: Certo. Partiamo dall'obiettivo, poi guardiamo i dati e infine verifichiamo il risultato con un test semplice.\n",
  "4934": "valut",
  "4935": "valutazion",
  "4936": "G20 ",
  "4937": "G20 School",
  "4938": "Grou",
  "4939": "'s R",
  "4940": "ober",
  "4941": "obert ",
  "4942": "Singapore",
  "4943": "school in ",
  "4944": "headmast",
  "4945": "friendship ",
  "4946": "occas",
  "4947": "occasion",
  "4948": "Hennessy Scholar",
  "4949": "ann",
  "4950": "year was the ",
  "4951": "at their ",
  "4952": "Alexander ",
  "4953": "Windsor, E",
  "4954": "grand",
  "4955": "ent and ",
  "4956": "Gloucester ",
  "4957": "attended Eton",
  "4958": "George L",
  "4959": "George Las",
  "4960": "George Lascell",
  "4961": "th E",
  "4962": "th Earl of ",
  "4963": "th Earl of Har",
  "4964": "th Earl of Harew",
  "4965": "th Earl of Harewo",
  "4966": "Princess Mar",
  "4967": "Princess Mary, ",
  "4968": "Princess Mary, Princess ",
  "4969": "Etonians ",
  "4970": " and the ",
  "4971": "2012 ",
  "4972": "ysi",
  "4973": "oldies ",
  "4974": "and its ",
  "4975": "1960s and 1970",
  "4976": "demographic pressure",
  "4977": "soft AC stations ",
  "4978": "adult standard",
  "4979": "declin",
  "4980": "as, ",
  "4981": "k, and ",
  "4982": "play a ",
  "4983": "t AC stations ",
  "4984": "th-",
  "4985": "pop",
  "4986": "urb",
  "4987": "rh",
  "4988": "models of ",
  "4989": "associated with the ",
  "4990": "ency?\nAnswer: ",
  "4991": "pect",
  "4992": "three elements ",
  "4993": "ical immunology ",
  "4994": "immune system disorder",
  "4995": "problem",
  "4996": "s\nQuestion: Why ",
  "4997": "AI",
  "4998": "AIDS",
  "4999": "immunodefic",
  "5000": "antigen ",
  "5001": "great",
  "5002": "greatly ",
  "5003": "es in the ",
  "5004": "Commerc",
  "5005": "Aer",
  "5006": "Aeron",
  "5007": "Aeronau",
  "5008": "Bran",
  "5009": "air coll",
  "5010": "ision",
  "5011": "Gr",
  "5012": "CA",
  "5013": "civ",
  "5014": "civil",
  "5015": "FAA's ",
  "5016": "FAA's first ",
  "5017": "FAA's first administr",
  "5018": "FAA's first administrator",
  "5019": ".\nQuestion: When did the ",
  "5020": "his mother's ",
  "5021": "deafn",
  "5022": "began to ",
  "5023": "er language ",
  "5024": "ution",
  "5025": "\nQuestion: Were ",
  "5026": "Burma ",
  "5027": "Myanmar ",
  "5028": "ethn",
  "5029": "ethnic ",
  "5030": "ethnic Chinese ",
  "5031": "ethnic Chinese rebel",
  "5032": "homes and ",
  "5033": "China ",
  "5034": "encod",
  "5035": "General Category proper",
  "5036": "umber",
  "5037": "Se",
  "5038": "Separ",
  "5039": "mul",
  "5040": "multi",
  "5041": "code point",
  "5042": "Other, ",
  "5043": "Unicode",
  "5044": "alway",
  "5045": "always ",
  "5046": "tion towards the ",
  "5047": "tion towards the Bri",
  "5048": "tion towards the Briti",
  "5049": "tion towards the British",
  "5050": "tion towards the British, who ",
  "5051": "tion towards the British, who had ",
  "5052": "tion towards the British, who had moved to ",
  "5053": "tion towards the British, who had moved to quickly ",
  "5054": "tion towards the British, who had moved to quickly re",
  "5055": "tion towards the British, who had moved to quickly retake ",
  "5056": "tion towards the British, who had moved to quickly retake control ",
  "5057": "tion towards the British, who had moved to quickly retake control of the ",
  "5058": "tion towards the British, who had moved to quickly retake control of the colon",
  "5059": "tion towards the British, who had moved to quickly retake control of the colony, ",
  "5060": "tion towards the British, who had moved to quickly retake control of the colony, val",
  "5061": "tion towards the British, who had moved to quickly retake control of the colony, valu",
  "5062": "tion towards the British, who had moved to quickly retake control of the colony, valuing it ",
  "5063": "tion towards the British, who had moved to quickly retake control of the colony, valuing it as ",
  "5064": "tion towards the British, who had moved to quickly retake control of the colony, valuing it as a s",
  "5065": "tion towards the British, who had moved to quickly retake control of the colony, valuing it as a sourc",
  "5066": "tion towards the British, who had moved to quickly retake control of the colony, valuing it as a source of ",
  "5067": "tion towards the British, who had moved to quickly retake control of the colony, valuing it as a source of r",
  "5068": "tion towards the British, who had moved to quickly retake control of the colony, valuing it as a source of rub",
  "5069": "tion towards the British, who had moved to quickly retake control of the colony, valuing it as a source of rubber ",
  "5070": "tion towards the British, who had moved to quickly retake control of the colony, valuing it as a source of rubber and t",
  "5071": "tion towards the British, who had moved to quickly retake control of the colony, valuing it as a source of rubber and tin",
  "5072": "Britain ",
  "5073": "Feder",
  "5074": "Federation of ",
  "5075": "Federation of Malay",
  "5076": "Chines",
  "5077": "e?\nIn ",
  "5078": "Church",
  "5079": "Atlantic City ",
  "5080": "Cap",
  "5081": "Capital ",
  "5082": "currently ",
  "5083": "New Jersey's ",
  "5084": "New Jersey's casino",
  "5085": "28.",
  "5086": "ino ",
  "5087": "Pen",
  "5088": "Penns",
  "5089": "Pennsyl",
  "5090": "Pennsylv",
  "5091": "second",
  "5092": "Plaz",
  "5093": "?\nQuestion: What was the name of the ",
  "5094": "promin",
  "5095": "itism",
  "5096": "'s father ",
  "5097": "British by ",
  "5098": "British by birth",
  "5099": "stipul",
  "5100": "entran",
  "5101": "entrance ",
  "5102": "full ",
  "5103": "ocor",
  "5104": "une ",
  "5105": "2006 ",
  "5106": "lifestyle changes ",
  "5107": "exer",
  "5108": "exerc",
  "5109": "healthy ",
  "5110": "average ",
  "5111": "perfor",
  "5112": "performan",
  "5113": "performanc",
  "5114": "there",
  "5115": "therefore ",
  "5116": "increase their ",
  "5117": "til",
  "5118": "gas ",
  "5119": "6, the ",
  "5120": "termin",
  "5121": "es does ",
  "5122": "PGW ",
  "5123": "in 199",
  "5124": "610 ",
  "5125": "add",
  "5126": "2001 ",
  "5127": "used in ",
  "5128": "enj",
  "5129": "honor",
  "5130": "sister city ",
  "5131": "combat ",
  "5132": "war ",
  "5133": "octa",
  "5134": "ambig",
  "5135": "ambigu",
  "5136": "tempor",
  "5137": "England",
  "5138": "moti",
  "5139": "England ",
  "5140": "national football ",
  "5141": "lion",
  "5142": "a year ",
  "5143": "in from ",
  "5144": "ceas",
  "5145": "ectively ",
  "5146": "Coali",
  "5147": "Coalition ",
  "5148": "War on Terror",
  "5149": "ans",
  "5150": "On ",
  "5151": "ing eng",
  "5152": ". These ",
  "5153": "user interface ",
  "5154": "?\nQuestion: What does ",
  "5155": "eiD",
  "5156": "Navig",
  "5157": "2000",
  "5158": "NFL Network ",
  "5159": "leag",
  "5160": "NFL Network",
  "5161": "game ",
  "5162": "broadcast part",
  "5163": "ular season ",
  "5164": "Aren",
  "5165": "CBSSN",
  "5166": "owl ",
  "5167": "center ",
  "5168": "Otta",
  "5169": "Ottaw",
  "5170": "Ottawa ",
  "5171": "its workforce ",
  "5172": "workers ",
  "5173": "staff",
  "5174": "Dell",
  "5175": "stren",
  "5176": "streng",
  "5177": "labour ",
  "5178": "export",
  "5179": "fru",
  "5180": "Samoa",
  "5181": "Samoan ",
  "5182": "invest",
  "5183": "y loss, ",
  "5184": "y loss, gradi",
  "5185": "y loss, gradient",
  "5186": "y loss, gradients and ",
  "5187": "y loss, gradients and optimizer ",
  "5188": "y loss, gradients and optimizer up",
  "5189": "y loss, gradients and optimizer updat",
  "5190": "y loss, gradients and optimizer updates.\n",
  "5191": "y loss, gradients and optimizer updates.\nsmall ",
  "5192": "y loss, gradients and optimizer updates.\nsmall model",
  "5193": "y loss, gradients and optimizer updates.\nsmall models are ",
  "5194": "y loss, gradients and optimizer updates.\nsmall models are useful for ",
  "5195": "y loss, gradients and optimizer updates.\nsmall models are useful for experiments ",
  "5196": "y loss, gradients and optimizer updates.\nsmall models are useful for experiments because ",
  "5197": "y loss, gradients and optimizer updates.\nsmall models are useful for experiments because every ",
  "5198": "y loss, gradients and optimizer updates.\nsmall models are useful for experiments because every tensor ",
  "5199": "y loss, gradients and optimizer updates.\nsmall models are useful for experiments because every tensor shape ",
  "5200": "y loss, gradients and optimizer updates.\nsmall models are useful for experiments because every tensor shape can be ",
  "5201": "y loss, gradients and optimizer updates.\nsmall models are useful for experiments because every tensor shape can be in",
  "5202": "y loss, gradients and optimizer updates.\nsmall models are useful for experiments because every tensor shape can be insp",
  "5203": "y loss, gradients and optimizer updates.\nsmall models are useful for experiments because every tensor shape can be inspected",
  "5204": "y loss, gradients and optimizer updates.\nsmall models are useful for experiments because every tensor shape can be inspected.\na ",
  "5205": "y loss, gradients and optimizer updates.\nsmall models are useful for experiments because every tensor shape can be inspected.\na datas",
  "5206": "y loss, gradients and optimizer updates.\nsmall models are useful for experiments because every tensor shape can be inspected.\na dataset ",
  "5207": "y loss, gradients and optimizer updates.\nsmall models are useful for experiments because every tensor shape can be inspected.\na dataset should ",
  "5208": "y loss, gradients and optimizer updates.\nsmall models are useful for experiments because every tensor shape can be inspected.\na dataset should cont",
  "5209": "y loss, gradients and optimizer updates.\nsmall models are useful for experiments because every tensor shape can be inspected.\na dataset should contain ",
  "5210": "y loss, gradients and optimizer updates.\nsmall models are useful for experiments because every tensor shape can be inspected.\na dataset should contain enough ",
  "5211": "y loss, gradients and optimizer updates.\nsmall models are useful for experiments because every tensor shape can be inspected.\na dataset should contain enough varied ",
  "5212": "y loss, gradients and optimizer updates.\nsmall models are useful for experiments because every tensor shape can be inspected.\na dataset should contain enough varied tex",
  "5213": "y loss, gradients and optimizer updates.\nsmall models are useful for experiments because every tensor shape can be inspected.\na dataset should contain enough varied text to ",
  "5214": "y loss, gradients and optimizer updates.\nsmall models are useful for experiments because every tensor shape can be inspected.\na dataset should contain enough varied text to te",
  "5215": "y loss, gradients and optimizer updates.\nsmall models are useful for experiments because every tensor shape can be inspected.\na dataset should contain enough varied text to teach ",
  "5216": "y loss, gradients and optimizer updates.\nsmall models are useful for experiments because every tensor shape can be inspected.\na dataset should contain enough varied text to teach the ",
  "5217": "y loss, gradients and optimizer updates.\nsmall models are useful for experiments because every tensor shape can be inspected.\na dataset should contain enough varied text to teach the tokenizer ",
  "5218": "y loss, gradients and optimizer updates.\nsmall models are useful for experiments because every tensor shape can be inspected.\na dataset should contain enough varied text to teach the tokenizer common ",
  "5219": "y loss, gradients and optimizer updates.\nsmall models are useful for experiments because every tensor shape can be inspected.\na dataset should contain enough varied text to teach the tokenizer common f",
  "5220": "y loss, gradients and optimizer updates.\nsmall models are useful for experiments because every tensor shape can be inspected.\na dataset should contain enough varied text to teach the tokenizer common frag",
  "5221": "y loss, gradients and optimizer updates.\nsmall models are useful for experiments because every tensor shape can be inspected.\na dataset should contain enough varied text to teach the tokenizer common fragment",
  "5222": "y loss, gradients and optimizer updates.\nsmall models are useful for experiments because every tensor shape can be inspected.\na dataset should contain enough varied text to teach the tokenizer common fragments.\n",
  "5223": "y loss, gradients and optimizer updates.\nsmall models are useful for experiments because every tensor shape can be inspected.\na dataset should contain enough varied text to teach the tokenizer common fragments.\nduring ",
  "5224": "y loss, gradients and optimizer updates.\nsmall models are useful for experiments because every tensor shape can be inspected.\na dataset should contain enough varied text to teach the tokenizer common fragments.\nduring inf",
  "5225": "y loss, gradients and optimizer updates.\nsmall models are useful for experiments because every tensor shape can be inspected.\na dataset should contain enough varied text to teach the tokenizer common fragments.\nduring inference ",
  "5226": "y loss, gradients and optimizer updates.\nsmall models are useful for experiments because every tensor shape can be inspected.\na dataset should contain enough varied text to teach the tokenizer common fragments.\nduring inference the ",
  "5227": "y loss, gradients and optimizer updates.\nsmall models are useful for experiments because every tensor shape can be inspected.\na dataset should contain enough varied text to teach the tokenizer common fragments.\nduring inference the model ",
  "5228": "y loss, gradients and optimizer updates.\nsmall models are useful for experiments because every tensor shape can be inspected.\na dataset should contain enough varied text to teach the tokenizer common fragments.\nduring inference the model s",
  "5229": "y loss, gradients and optimizer updates.\nsmall models are useful for experiments because every tensor shape can be inspected.\na dataset should contain enough varied text to teach the tokenizer common fragments.\nduring inference the model sampl",
  "5230": "y loss, gradients and optimizer updates.\nsmall models are useful for experiments because every tensor shape can be inspected.\na dataset should contain enough varied text to teach the tokenizer common fragments.\nduring inference the model samples ",
  "5231": "y loss, gradients and optimizer updates.\nsmall models are useful for experiments because every tensor shape can be inspected.\na dataset should contain enough varied text to teach the tokenizer common fragments.\nduring inference the model samples one ",
  "5232": "y loss, gradients and optimizer updates.\nsmall models are useful for experiments because every tensor shape can be inspected.\na dataset should contain enough varied text to teach the tokenizer common fragments.\nduring inference the model samples one token ",
  "5233": "y loss, gradients and optimizer updates.\nsmall models are useful for experiments because every tensor shape can be inspected.\na dataset should contain enough varied text to teach the tokenizer common fragments.\nduring inference the model samples one token at ",
  "5234": "y loss, gradients and optimizer updates.\nsmall models are useful for experiments because every tensor shape can be inspected.\na dataset should contain enough varied text to teach the tokenizer common fragments.\nduring inference the model samples one token at a ",
  "5235": "y loss, gradients and optimizer updates.\nsmall models are useful for experiments because every tensor shape can be inspected.\na dataset should contain enough varied text to teach the tokenizer common fragments.\nduring inference the model samples one token at a time ",
  "5236": "y loss, gradients and optimizer updates.\nsmall models are useful for experiments because every tensor shape can be inspected.\na dataset should contain enough varied text to teach the tokenizer common fragments.\nduring inference the model samples one token at a time using ",
  "5237": "y loss, gradients and optimizer updates.\nsmall models are useful for experiments because every tensor shape can be inspected.\na dataset should contain enough varied text to teach the tokenizer common fragments.\nduring inference the model samples one token at a time using temper",
  "5238": "y loss, gradients and optimizer updates.\nsmall models are useful for experiments because every tensor shape can be inspected.\na dataset should contain enough varied text to teach the tokenizer common fragments.\nduring inference the model samples one token at a time using temperature ",
  "5239": "y loss, gradients and optimizer updates.\nsmall models are useful for experiments because every tensor shape can be inspected.\na dataset should contain enough varied text to teach the tokenizer common fragments.\nduring inference the model samples one token at a time using temperature and ",
  "5240": "y loss, gradients and optimizer updates.\nsmall models are useful for experiments because every tensor shape can be inspected.\na dataset should contain enough varied text to teach the tokenizer common fragments.\nduring inference the model samples one token at a time using temperature and fil",
  "5241": "y loss, gradients and optimizer updates.\nsmall models are useful for experiments because every tensor shape can be inspected.\na dataset should contain enough varied text to teach the tokenizer common fragments.\nduring inference the model samples one token at a time using temperature and filter",
  "5242": "y loss, gradients and optimizer updates.\nsmall models are useful for experiments because every tensor shape can be inspected.\na dataset should contain enough varied text to teach the tokenizer common fragments.\nduring inference the model samples one token at a time using temperature and filtering",
  "5243": "y loss, gradients and optimizer updates.\nsmall models are useful for experiments because every tensor shape can be inspected.\na dataset should contain enough varied text to teach the tokenizer common fragments.\nduring inference the model samples one token at a time using temperature and filtering.\np",
  "5244": "y loss, gradients and optimizer updates.\nsmall models are useful for experiments because every tensor shape can be inspected.\na dataset should contain enough varied text to teach the tokenizer common fragments.\nduring inference the model samples one token at a time using temperature and filtering.\npyth",
  "5245": "y loss, gradients and optimizer updates.\nsmall models are useful for experiments because every tensor shape can be inspected.\na dataset should contain enough varied text to teach the tokenizer common fragments.\nduring inference the model samples one token at a time using temperature and filtering.\npython ",
  "5246": "y loss, gradients and optimizer updates.\nsmall models are useful for experiments because every tensor shape can be inspected.\na dataset should contain enough varied text to teach the tokenizer common fragments.\nduring inference the model samples one token at a time using temperature and filtering.\npython is a ",
  "5247": "y loss, gradients and optimizer updates.\nsmall models are useful for experiments because every tensor shape can be inspected.\na dataset should contain enough varied text to teach the tokenizer common fragments.\nduring inference the model samples one token at a time using temperature and filtering.\npython is a prog",
  "5248": "y loss, gradients and optimizer updates.\nsmall models are useful for experiments because every tensor shape can be inspected.\na dataset should contain enough varied text to teach the tokenizer common fragments.\nduring inference the model samples one token at a time using temperature and filtering.\npython is a programm",
  "5249": "y loss, gradients and optimizer updates.\nsmall models are useful for experiments because every tensor shape can be inspected.\na dataset should contain enough varied text to teach the tokenizer common fragments.\nduring inference the model samples one token at a time using temperature and filtering.\npython is a programming ",
  "5250": "y loss, gradients and optimizer updates.\nsmall models are useful for experiments because every tensor shape can be inspected.\na dataset should contain enough varied text to teach the tokenizer common fragments.\nduring inference the model samples one token at a time using temperature and filtering.\npython is a programming language ",
  "5251": "y loss, gradients and optimizer updates.\nsmall models are useful for experiments because every tensor shape can be inspected.\na dataset should contain enough varied text to teach the tokenizer common fragments.\nduring inference the model samples one token at a time using temperature and filtering.\npython is a programming language used for ",
  "5252": "y loss, gradients and optimizer updates.\nsmall models are useful for experiments because every tensor shape can be inspected.\na dataset should contain enough varied text to teach the tokenizer common fragments.\nduring inference the model samples one token at a time using temperature and filtering.\npython is a programming language used for scrip",
  "5253": "y loss, gradients and optimizer updates.\nsmall models are useful for experiments because every tensor shape can be inspected.\na dataset should contain enough varied text to teach the tokenizer common fragments.\nduring inference the model samples one token at a time using temperature and filtering.\npython is a programming language used for script",
  "5254": "y loss, gradients and optimizer updates.\nsmall models are useful for experiments because every tensor shape can be inspected.\na dataset should contain enough varied text to teach the tokenizer common fragments.\nduring inference the model samples one token at a time using temperature and filtering.\npython is a programming language used for scripting, ",
  "5255": "y loss, gradients and optimizer updates.\nsmall models are useful for experiments because every tensor shape can be inspected.\na dataset should contain enough varied text to teach the tokenizer common fragments.\nduring inference the model samples one token at a time using temperature and filtering.\npython is a programming language used for scripting, autom",
  "5256": "y loss, gradients and optimizer updates.\nsmall models are useful for experiments because every tensor shape can be inspected.\na dataset should contain enough varied text to teach the tokenizer common fragments.\nduring inference the model samples one token at a time using temperature and filtering.\npython is a programming language used for scripting, automation, ",
  "5257": "y loss, gradients and optimizer updates.\nsmall models are useful for experiments because every tensor shape can be inspected.\na dataset should contain enough varied text to teach the tokenizer common fragments.\nduring inference the model samples one token at a time using temperature and filtering.\npython is a programming language used for scripting, automation, data ",
  "5258": "y loss, gradients and optimizer updates.\nsmall models are useful for experiments because every tensor shape can be inspected.\na dataset should contain enough varied text to teach the tokenizer common fragments.\nduring inference the model samples one token at a time using temperature and filtering.\npython is a programming language used for scripting, automation, data anal",
  "5259": "y loss, gradients and optimizer updates.\nsmall models are useful for experiments because every tensor shape can be inspected.\na dataset should contain enough varied text to teach the tokenizer common fragments.\nduring inference the model samples one token at a time using temperature and filtering.\npython is a programming language used for scripting, automation, data analys",
  "5260": "y loss, gradients and optimizer updates.\nsmall models are useful for experiments because every tensor shape can be inspected.\na dataset should contain enough varied text to teach the tokenizer common fragments.\nduring inference the model samples one token at a time using temperature and filtering.\npython is a programming language used for scripting, automation, data analysis and ",
  "5261": "y loss, gradients and optimizer updates.\nsmall models are useful for experiments because every tensor shape can be inspected.\na dataset should contain enough varied text to teach the tokenizer common fragments.\nduring inference the model samples one token at a time using temperature and filtering.\npython is a programming language used for scripting, automation, data analysis and machine learning",
  "5262": "y loss, gradients and optimizer updates.\nsmall models are useful for experiments because every tensor shape can be inspected.\na dataset should contain enough varied text to teach the tokenizer common fragments.\nduring inference the model samples one token at a time using temperature and filtering.\npython is a programming language used for scripting, automation, data analysis and machine learning.\np",
  "5263": "below ",
  "5264": "below the ",
  "5265": "below the po",
  "5266": "below the pover",
  "5267": "below the poverty ",
  "5268": "below the poverty lin",
  "5269": "1950",
  "5270": "non-Hispanic ",
  "5271": "non-Hispanic whites ",
  "5272": "their titular churches",
  "5273": "cardinals ",
  "5274": "governing ",
  "5275": "nun",
  "5276": "Dean of the ",
  "5277": "Dean of the College of ",
  "5278": "receives the ",
  "5279": "ric of ",
  "5280": "ric of O",
  "5281": "ric of Osti",
  "5282": "ric of Ostia",
  "5283": "other title ",
  "5284": "other title does the ",
  "5285": "decre",
  "5286": "How long ",
  "5287": "How long have ",
  "5288": "How long have ducks ",
  "5289": "d the ",
  "5290": "domesticating ",
  "5291": "duck ",
  "5292": "ducks",
  "5293": "Western ",
  "5294": "commercial ",
  "5295": "goal ",
  "5296": "goal of the ",
  "5297": "Frederic R",
  "5298": "Frederic Rem",
  "5299": "shift ",
  "5300": "Name the ",
  "5301": "who were in ",
  "5302": "who were in part ",
  "5303": "who were in part res",
  "5304": "who were in part reson",
  "5305": "who were in part resonsible ",
  "5306": "who were in part resonsible for the ",
  "5307": "who were in part resonsible for the re",
  "5308": "who were in part resonsible for the reemergence of ",
  "5309": "who were in part resonsible for the reemergence of Cubism ",
  "5310": "who were in part resonsible for the reemergence of Cubism between ",
  "5311": "who were in part resonsible for the reemergence of Cubism between 19",
  "5312": "who were in part resonsible for the reemergence of Cubism between 1917",
  "5313": "who were in part resonsible for the reemergence of Cubism between 1917 and ",
  "5314": "who were in part resonsible for the reemergence of Cubism between 1917 and 192",
  "5315": "who were in part resonsible for the reemergence of Cubism between 1917 and 1924",
  "5316": "Japanese quail ",
  "5317": "egg production",
  "5318": "1940",
  "5319": "gé",
  "5320": "géno",
  "5321": "too mu",
  "5322": "too much, ",
  "5323": "too much, he ",
  "5324": "too much, he respon",
  "5325": "too much, he responded",
  "5326": "too much, he responded, ",
  "5327": "too much, he responded, \"H",
  "5328": "too much, he responded, \"Hell ",
  "5329": "too much, he responded, \"Hell no",
  "5330": "esp",
  "5331": "espite ",
  "5332": "Hill",
  "5333": "Clinton ",
  "5334": "es. However, after ",
  "5335": "six",
  "5336": "State De",
  "5337": "poll ",
  "5338": "approval ",
  "5339": "rat",
  "5340": "continued to ",
  "5341": "Less ",
  "5342": "Less than ",
  "5343": "Foreign Polic",
  "5344": "Foreign Policy M",
  "5345": "Foreign Policy Mag",
  "5346": "Foreign Policy Magaz",
  "5347": "Foreign Policy Magazine",
  "5348": "ed, \"",
  "5349": "Who ",
  "5350": "effec",
  "5351": "effective ",
  "5352": ". Sec",
  "5353": "in the past ",
  "5354": "50 ",
  "5355": "Law",
  "5356": "Lawr",
  "5357": "Lawrence ",
  "5358": "ger ",
  "5359": "tied for ",
  "5360": "tied for 11",
  "5361": "tied for 11th ",
  "5362": "tied for 11th place ",
  "5363": "tied for 11th place out of the ",
  "5364": "about how ",
  "5365": "about how Kerry ",
  "5366": "about how Kerry ran ",
  "5367": "about how Kerry ran the ",
  "5368": "about how Kerry ran the State ",
  "5369": "about how Kerry ran the State D",
  "5370": "about how Kerry ran the State Dept",
  "5371": "aint ",
  "5372": "has become ",
  "5373": "alized ",
  "5374": "leader",
  "5375": "frequ",
  "5376": "overse",
  "5377": "overseas ",
  "5378": "having ",
  "5379": "\"\nQuestion: Who ",
  "5380": "Ivory Tower Sur",
  "5381": "Ivory Tower Surv",
  "5382": "January ",
  "5383": "Archbish",
  "5384": "Archbishop ",
  "5385": "Archbishop P",
  "5386": "Archbishop Piet",
  "5387": "Archbishop Pietro ",
  "5388": "Archbishop Pietro Parolin",
  "5389": "Kerry said ",
  "5390": "We ",
  "5391": "that are ",
  "5392": "concern ",
  "5393": ". Fir",
  "5394": "all, ",
  "5395": "leng",
  "5396": "length ",
  "5397": "e'",
  "5398": "Geneva ",
  "5399": "Geneva II ",
  "5400": "Geneva II proc",
  "5401": "broad ",
  "5402": "concern",
  "5403": "ed about ",
  "5404": "assive ",
  "5405": "human ",
  "5406": "violence ",
  "5407": "that has ",
  "5408": "taken ",
  "5409": "over 130",
  "5410": "lives",
  "5411": "in Jan 2014",
  "5412": "did Kerry ",
  "5413": "?\nQuestion: What did the ",
  "5414": "Pope ",
  "5415": "press ",
  "5416": "response to ",
  "5417": "question ",
  "5418": "As",
  "5419": "Ass",
  "5420": "stri",
  "5421": "to the international ",
  "5422": "community ",
  "5423": "ing for ",
  "5424": ". But ",
  "5425": "isn't ",
  "5426": "can't ",
  "5427": "that would ",
  "5428": "lead to ",
  "5429": "relinqu",
  "5430": "relinquish ",
  "5431": "relinquish and ",
  "5432": "relinquish and destro",
  "5433": "relinquish and destroy ",
  "5434": "relinquish and destroy its ",
  "5435": "chemical weapons ar",
  "5436": "chemical weapons arsen",
  "5437": "Russian ",
  "5438": "rov",
  "5439": "atel",
  "5440": "al and ",
  "5441": ", the U",
  "5442": ", the UN ",
  "5443": "join the ",
  "5444": "ban",
  "5445": "banning ",
  "5446": "any?\nAnswer: ",
  "5447": "kind of ref",
  "5448": "kind of refer",
  "5449": "kind of referend",
  "5450": "kind of referendum ",
  "5451": "kind of referendum can the ",
  "5452": "kind of referendum can the lower ",
  "5453": "take against the ",
  "5454": "e of conf",
  "5455": "ence\nQuestion: What ",
  "5456": "need",
  "5457": "upper house of ",
  "5458": "upper house of parliment",
  "5459": "appeal ",
  "5460": ". However, in ",
  "5461": "head of state ",
  "5462": "refuse ",
  "5463": "parliamentary diss",
  "5464": "parliamentary dissolution",
  "5465": "resignation of the ",
  "5466": "resignation of the prime minist",
  "5467": "resignation of the prime minister and his ",
  "5468": "resignation of the prime minister and his or ",
  "5469": "resignation of the prime minister and his or her ",
  "5470": "resignation of the prime minister and his or her government",
  "5471": "prime minister is the ",
  "5472": "areas?\nAnswer: ",
  "5473": "in charg",
  "5474": "in charge of ",
  "5475": "asking ",
  "5476": "has the power ",
  "5477": "ation from",
  "5478": "dissalu",
  "5479": "dissalution ",
  "5480": "parliment ",
  "5481": "lder ",
  "5482": "titutions ",
  "5483": "abin",
  "5484": "abinet",
  "5485": "United Kingdom",
  "5486": "dissolution of parliament ",
  "5487": "dates ",
  "5488": "dates back to ",
  "5489": "then",
  "5490": "that made ",
  "5491": "that made the ",
  "5492": "arly, ",
  "5493": "the modern ",
  "5494": "193",
  "5495": "constitution ",
  "5496": "1922 ",
  "5497": "1922 Irish ",
  "5498": "1922 Irish F",
  "5499": "1922 Irish Free ",
  "5500": "1922 Irish Free State ",
  "5501": "1922 Irish Free State Con",
  "5502": "1922 Irish Free State Constitution ",
  "5503": "(the ",
  "5504": "vention of ",
  "5505": "ating the ",
  "5506": "Irel",
  "5507": "Ireland",
  "5508": "when was the ",
  "5509": "power to diss",
  "5510": "power to dissolve ",
  "5511": "Council",
  "5512": "Executive Council ",
  "5513": "belong",
  "5514": "whole ",
  "5515": "is exp",
  "5516": "is expected to ",
  "5517": "step ",
  "5518": "step down ",
  "5519": "under a ",
  "5520": "spill motion ",
  "5521": "to res",
  "5522": "prime minister is ",
  "5523": "actually ",
  "5524": "titled ",
  "5525": "hair",
  "5526": "hairman ",
  "5527": "hairman of the ",
  "5528": "called the ",
  "5529": "), and ",
  "5530": "in Isra",
  "5531": "in Israel ",
  "5532": "Ros",
  "5533": "alah ",
  "5534": "meaning \"",
  "5535": "cases, ",
  "5536": "title of the ",
  "5537": "hol",
  "5538": "President of the ",
  "5539": "ente ",
  "5540": ").\nQuestion: What is the ",
  "5541": "term for prime minister",
  "5542": "68",
  "5543": "three free Slavic states ",
  "5544": "the Russian Empire, Serb",
  "5545": "ia and Montenegro",
  "5546": "de j",
  "5547": "de jure ",
  "5548": "de jure v",
  "5549": "de jure vass",
  "5550": "de jure vassal ",
  "5551": "Ottom",
  "5552": "an Emp",
  "5553": "an Empire ",
  "5554": "official independence ",
  "5555": "official independence was ",
  "5556": "official independence was declar",
  "5557": "official independence was declared in 19",
  "5558": "official independence was declared in 1908",
  "5559": "Aust",
  "5560": "Austro-",
  "5561": "Austro-H",
  "5562": "Austro-Hun",
  "5563": "Austro-Hungar",
  "5564": "Austro-Hungarian ",
  "5565": "Austro-Hungarian E",
  "5566": "part, ",
  "5567": "voice ",
  "5568": "affair",
  "5569": "pire, ",
  "5570": ". During ",
  "5571": "organizations ",
  "5572": "lied ",
  "5573": "Slavs ",
  "5574": "established ",
  "5575": "independent states ",
  "5576": "independent states as ",
  "5577": "independent states as Czechoslovakia",
  "5578": "independent states as Czechoslovakia, the Second ",
  "5579": "independent states as Czechoslovakia, the Second Polish ",
  "5580": "independent states as Czechoslovakia, the Second Polish Republic",
  "5581": "independent states as Czechoslovakia, the Second Polish Republic, and the ",
  "5582": "independent states as Czechoslovakia, the Second Polish Republic, and the Stat",
  "5583": "independent states as Czechoslovakia, the Second Polish Republic, and the State of ",
  "5584": "independent states as Czechoslovakia, the Second Polish Republic, and the State of Sloven",
  "5585": "independent states as Czechoslovakia, the Second Polish Republic, and the State of Slovenes, ",
  "5586": "independent states as Czechoslovakia, the Second Polish Republic, and the State of Slovenes, Croat",
  "5587": "independent states as Czechoslovakia, the Second Polish Republic, and the State of Slovenes, Croats and ",
  "5588": "independent states as Czechoslovakia, the Second Polish Republic, and the State of Slovenes, Croats and Serb",
  "5589": "1878",
  "5590": "78",
  "5591": "an Empire?\nQuestion: What ",
  "5592": "ler",
  "5593": "ler's ",
  "5594": "general ",
  "5595": "East",
  "5596": "occu",
  "5597": "nd",
  "5598": "nd\nQuestion: Where ",
  "5599": "nd\nQuestion: Where did ",
  "5600": "nd\nQuestion: Where did archae",
  "5601": "nd\nQuestion: Where did archaeolog",
  "5602": "nd\nQuestion: Where did archaeologists ",
  "5603": "nd\nQuestion: Where did archaeologists fin",
  "5604": "nd\nQuestion: Where did archaeologists find a ",
  "5605": "nd\nQuestion: Where did archaeologists find a depic",
  "5606": "nd\nQuestion: Where did archaeologists find a depiction of ",
  "5607": "nd\nQuestion: Where did archaeologists find a depiction of a M",
  "5608": "nd\nQuestion: Where did archaeologists find a depiction of a May",
  "5609": "nd\nQuestion: Where did archaeologists find a depiction of a Mayan ",
  "5610": "nd\nQuestion: Where did archaeologists find a depiction of a Mayan stringed instr",
  "5611": "nd\nQuestion: Where did archaeologists find a depiction of a Mayan stringed instrument",
  "5612": "\nQuestion: What did the ",
  "5613": "Visual ",
  "5614": "Visual arts ",
  "5615": "Visual arts by ",
  "5616": "Visual arts by indigenous ",
  "5617": "Visual arts by indigenous peopl",
  "5618": "major category ",
  "5619": "major category in the world ",
  "5620": "major category in the world art ",
  "5621": "major category in the world art coll",
  "5622": "major category in the world art collection",
  "5623": "ributions ",
  "5624": "potter",
  "5625": "y, we",
  "5626": "y, weav",
  "5627": "y, weaving",
  "5628": "sculp",
  "5629": "ecause ",
  "5630": "too many ",
  "5631": "too many artists ",
  "5632": "too many artists were ",
  "5633": "too many artists were pos",
  "5634": "too many artists were posing ",
  "5635": "too many artists were posing as ",
  "5636": "too many artists were posing as Native ",
  "5637": "too many artists were posing as Native Americ",
  "5638": "too many artists were posing as Native American",
  "5639": "aska ",
  "5640": "United States, the ",
  "5641": "passed the ",
  "5642": "Indian Arts and Crafts Act of 1990",
  "5643": "artists to pro",
  "5644": "artists to prove ",
  "5645": "federally recognized ",
  "5646": "federally recognized tri",
  "5647": "federally recognized tribe",
  "5648": "practice of ",
  "5649": "national Native ",
  "5650": "national Native Arts and C",
  "5651": "national Native Arts and Culture",
  "5652": "national Native Arts and Cultures ",
  "5653": "national Native Arts and Cultures Found",
  "5654": "national Native Arts and Cultures Foundation ",
  "5655": "compris",
  "5656": "es\nQuestion: ",
  "5657": "some of the ",
  "5658": "by which ",
  "5659": "?\nQuestion: Why did the ",
  "5660": "pas",
  "5661": "requir",
  "5662": "they",
  "5663": "they'",
  "5664": "they're ",
  "5665": "established",
  "5666": "gent",
  "5667": "blo",
  "5668": ",3",
  "5669": "1.",
  "5670": "total population",
  "5671": "identi",
  "5672": "identifi",
  "5673": "User: Spiegami in modo semplice Python.\nAssistant: In breve, Python ",
  "5674": "serve a rendere il progetto più controllabile, più leggibile e più facile da migliorare.\n\nTechnical note: ",
  "5675": "sevent",
  "5676": "een ",
  "5677": "Netherlands",
  "5678": "beginn",
  "5679": "existence ",
  "5680": "existence of the ",
  "5681": "kingdom ",
  "5682": "befor",
  "5683": "are some ",
  "5684": "Batvi",
  "5685": "Batvian ",
  "5686": "Batvian Republic ",
  "5687": "?\nQuestion: During ",
  "5688": "?\nQuestion: During what ",
  "5689": "?\nQuestion: During what period ",
  "5690": "respond",
  "5691": "Netherlands, ",
  "5692": "Netherlands, B",
  "5693": "Netherlands, Bel",
  "5694": "Netherlands, Belgi",
  "5695": "Netherlands, Belgium",
  "5696": "Netherlands, Belgium, and ",
  "5697": "Netherlands, Belgium, and L",
  "5698": "Netherlands, Belgium, and Lu",
  "5699": "Netherlands, Belgium, and Lux",
  "5700": "Netherlands, Belgium, and Luxemb",
  "5701": "Netherlands, Belgium, and Luxembour",
  "5702": "es, and ",
  "5703": "almost all of ",
  "5704": "which were ",
  "5705": "y of the ",
  "5706": "with the ex",
  "5707": "with the exc",
  "5708": "with the exception ",
  "5709": "with the exception of the ",
  "5710": "under the Kingdom of Franc",
  "5711": "Low Countries were ",
  "5712": "countri",
  "5713": "ruled by the ",
  "5714": "countries were ",
  "5715": "low ",
  "5716": "teen",
  "5717": "France ",
  "5718": "es?\n",
  "5719": "\n\nContext: ",
  "5720": "alian ",
  "5721": "alian and ",
  "5722": "alian and Spanish ",
  "5723": "alian and Spanish languages share ",
  "5724": "alian and Spanish languages share with the ",
  "5725": "alian and Spanish languages share with the French ",
  "5726": "alian and Spanish languages share with the French languag",
  "5727": "incomp",
  "5728": "rehen",
  "5729": "?\nQuestion: Which two ",
  "5730": "Italian and French ",
  "5731": "for various ",
  "5732": "food",
  "5733": "family relationship",
  "5734": "to each other",
  "5735": "in Spanish",
  "5736": "aux",
  "5737": "auxil",
  "5738": "auxili",
  "5739": "similarly ",
  "5740": "\"avoir",
  "5741": "phon",
  "5742": "phonological ",
  "5743": "phonological structur",
  "5744": "Italian and Spanish ",
  "5745": "have under",
  "5746": "have underg",
  "5747": "have undergone ",
  "5748": "change ",
  "5749": "change than ",
  "5750": "French, ",
  "5751": "with the result ",
  "5752": "with the result that ",
  "5753": "native ",
  "5754": "atta",
  "5755": "degre",
  "5756": "extensive ",
  "5757": "sibility for ",
  "5758": "ibil",
  "5759": "\nQuestion: Along with ",
  "5760": "ts of ",
  "5761": "words are similar ",
  "5762": "no long",
  "5763": "no longer ",
  "5764": "Spanish word is similar to the Italian word ",
  "5765": "?\nOne ",
  "5766": "Instruction: Spiega la self-attention in modo semplice.\nAssistant: La self-attention permette al modello di capire quali parole sono più importanti nel contesto.\n",
  "5767": "us qu",
  "5768": "us quan",
  "5769": "us quantit",
  "5770": "us quantity of ",
  "5771": "us quantity of uranium ",
  "5772": "us quantity of uranium as a w",
  "5773": "us quantity of uranium as a waste produc",
  "5774": "us quantity of uranium as a waste product, ",
  "5775": "us quantity of uranium as a waste product, since ",
  "5776": "us quantity of uranium as a waste product, since it ",
  "5777": "us quantity of uranium as a waste product, since it tak",
  "5778": "us quantity of uranium as a waste product, since it takes ",
  "5779": "us quantity of uranium as a waste product, since it takes three ",
  "5780": "us quantity of uranium as a waste product, since it takes three ton",
  "5781": "us quantity of uranium as a waste product, since it takes three tonn",
  "5782": "us quantity of uranium as a waste product, since it takes three tonnes of ",
  "5783": "us quantity of uranium as a waste product, since it takes three tonnes of uranium ",
  "5784": "us quantity of uranium as a waste product, since it takes three tonnes of uranium to ex",
  "5785": "us quantity of uranium as a waste product, since it takes three tonnes of uranium to extr",
  "5786": "us quantity of uranium as a waste product, since it takes three tonnes of uranium to extract ",
  "5787": "us quantity of uranium as a waste product, since it takes three tonnes of uranium to extract one g",
  "5788": "us quantity of uranium as a waste product, since it takes three tonnes of uranium to extract one gram",
  "5789": "us quantity of uranium as a waste product, since it takes three tonnes of uranium to extract one gram of ",
  "5790": "us quantity of uranium as a waste product, since it takes three tonnes of uranium to extract one gram of radi",
  "5791": "us quantity of uranium as a waste product, since it takes three tonnes of uranium to extract one gram of radium",
  "5792": "diver",
  "5793": "and ab",
  "5794": "und",
  "5795": "ides the ",
  "5796": "bul",
  "5797": "uv",
  "5798": "term for uranium ore",
  "5799": "term for uranium ore?\nQuestion: Who ",
  "5800": "term for uranium ore?\nQuestion: Who is",
  "5801": "term for uranium ore?\nQuestion: Who isol",
  "5802": "term for uranium ore?\nQuestion: Who isolated ",
  "5803": "term for uranium ore?\nQuestion: Who isolated radium ",
  "5804": "term for uranium ore?\nQuestion: Who isolated radium in ",
  "5805": "?\nQuestion: In what types of ",
  "5806": "?\nQuestion: In what types of p",
  "5807": "?\nQuestion: In what types of pain",
  "5808": "?\nQuestion: In what types of paints ",
  "5809": "?\nQuestion: In what types of paints was ",
  "5810": "?\nQuestion: In what types of paints was radium ",
  "5811": "-in",
  "5812": "ark",
  "5813": "painted with ",
  "5814": "painted with radium ",
  "5815": "painted with radium paint",
  "5816": "craf",
  "5817": "s\nQuestion: Along with ",
  "5818": "red, ",
  "5819": "red, blue, ",
  "5820": "red, blue, black",
  "5821": "red, blue, black, y",
  "5822": "red, blue, black, yellow ",
  "5823": "red, blue, black, yellow and ",
  "5824": "red, blue, black, yellow and green",
  "5825": "red, blue, black, yellow and green, what ",
  "5826": "notable col",
  "5827": "notable color of ",
  "5828": "notable color of uranium tile glaz",
  "5829": "used?\nQuestion: What ",
  "5830": "weren't ",
  "5831": "?\nQuestion: Along with ",
  "5832": "X-10 ",
  "5833": "at O",
  "5834": "ak R",
  "5835": "ak Rid",
  "5836": "National L",
  "5837": "National Labor",
  "5838": "(O",
  "5839": ") in ",
  "5840": "Pil",
  "5841": "world's ",
  "5842": "nuc",
  "5843": "nuclear ",
  "5844": "nuclear reactor ",
  "5845": "design",
  "5846": ". Ar",
  "5847": "Commission",
  "5848": "ing St",
  "5849": "became the first ",
  "5850": "1951",
  "5851": "ally, ",
  "5852": "react",
  "5853": "improvements ",
  "5854": "eventually ",
  "5855": "experienc",
  "5856": "high population ",
  "5857": "high population growth",
  "5858": "generating high ",
  "5859": "generating high demand for ",
  "5860": "generating high demand for hous",
  "5861": "housing bo",
  "5862": "housing boom ",
  "5863": "house pr",
  "5864": "house pric",
  "5865": "house prices and ",
  "5866": "house prices and r",
  "5867": "house prices and rent",
  "5868": "ability of ",
  "5869": "Melbourn",
  "5870": "e, with ",
  "5871": "pack",
  "5872": "packag",
  "5873": "[when",
  "5874": "[when?",
  "5875": "medium",
  "5876": "medium-dens",
  "5877": "medium-density and ",
  "5878": "medium-density and high",
  "5879": "medium-density and high-dens",
  "5880": "development in ",
  "5881": "Melbourne's ",
  "5882": "middle ",
  "5883": "middle and ",
  "5884": "middle and ou",
  "5885": "middle and outer",
  "5886": "middle and outer-",
  "5887": "suburbs have seen ",
  "5888": "suburbs have seen significant ",
  "5889": "suburbs have seen significant b",
  "5890": "suburbs have seen significant brown",
  "5891": "suburbs have seen significant brownfields ",
  "5892": "suburbs have seen significant brownfields re",
  "5893": ".\nQuestion: What is ",
  "5894": "s?\nQuestion: Which ",
  "5895": "ing\nQuestion: What ",
  "5896": "settl",
  "5897": "Crown ",
  "5898": "'s L",
  "5899": "on 30 ",
  "5900": "183",
  "5901": "New South ",
  "5902": "New South W",
  "5903": "New South Wal",
  "5904": "New South Wales, ",
  "5905": "sett",
  "5906": "nd ",
  "5907": "Victoria ",
  "5908": "Victoria in 18",
  "5909": "ush ",
  "5910": "wealth",
  "5911": ". After the ",
  "5912": "Australia ",
  "5913": "nation's ",
  "5914": "a Jew ",
  "5915": "?\nQuestion: How many groups ",
  "5916": "?\nQuestion: How many groups do ",
  "5917": "?\nQuestion: How many groups do Jew",
  "5918": "?\nQuestion: How many groups do Jews include ",
  "5919": "?\nQuestion: How many groups do Jews include in ",
  "5920": "usage",
  "5921": "who is a ",
  "5922": "Jewish identity have ",
  "5923": "halakhic definitions of ",
  "5924": "halakhic definitions of matriline",
  "5925": "halakhic definitions of matrilineal ",
  "5926": "halakhic definitions of matrilineal des",
  "5927": "halakhic definitions of matrilineal descent",
  "5928": "halakhic definitions of matrilineal descent, and ",
  "5929": "halakhic definitions of matrilineal descent, and halakhic ",
  "5930": "halakhic definitions of matrilineal descent, and halakhic conver",
  "5931": "halakhic definitions of matrilineal descent, and halakhic conversion",
  "5932": "codi",
  "5933": "Oral ",
  "5934": "Oral Tor",
  "5935": "Babylon",
  "5936": "Babylonian ",
  "5937": "Babylonian T",
  "5938": "Babylonian Tal",
  "5939": "200 ",
  "5940": "tions of the ",
  "5941": "onomy ",
  "5942": "5, ",
  "5943": "Jewish sag",
  "5944": "as a warn",
  "5945": "as a warning ",
  "5946": "as a warning against ",
  "5947": "as a warning against inter",
  "5948": "as a warning against intermarriage ",
  "5949": "as a warning against intermarriage between ",
  "5950": "as a warning against intermarriage between Jew",
  "5951": "as a warning against intermarriage between Jews and ",
  "5952": "as a warning against intermarriage between Jews and Cana",
  "5953": "as a warning against intermarriage between Jews and Canaan",
  "5954": "ols",
  "5955": "arri",
  "5956": "gyp",
  "5957": "community of ",
  "5958": "complement",
  "5959": "3, ",
  "5960": "ide ",
  "5961": "late ",
  "5962": "18th and 19",
  "5963": "18th and 19th centur",
  "5964": "interpretations of ",
  "5965": "chall",
  "5966": "challeng",
  "5967": "challenged",
  "5968": "have histor",
  "5969": "have historical definitions of ",
  "5970": "have historical definitions of Jewish identity ",
  "5971": "been based ",
  "5972": "on?\nQuestion: When was the ",
  "5973": "tion of the ",
  "5974": "ccording to ",
  "5975": "Sha",
  "5976": "Shay",
  "5977": "Shaye ",
  "5978": "Shaye J",
  "5979": "Shaye J. D",
  "5980": "Shaye J. D. ",
  "5981": "Shaye J. D. C",
  "5982": "Shaye J. D. Coh",
  "5983": "Shaye J. D. Cohen",
  "5984": "status of the ",
  "5985": "status of the offspring of mixed marriages was determined ",
  "5986": "status of the offspring of mixed marriages was determined pat",
  "5987": "status of the offspring of mixed marriages was determined patriline",
  "5988": "status of the offspring of mixed marriages was determined patrilineally in the Bible",
  "5989": "lik",
  "5990": "likely ",
  "5991": "explanations ",
  "5992": "for the change in Mishnaic tim",
  "5993": "for the change in Mishnaic times",
  "5994": "first",
  "5995": "Mishnah ",
  "5996": "Mishnah may have been ",
  "5997": "Mishnah may have been appl",
  "5998": "Mishnah may have been apply",
  "5999": "Mishnah may have been applying the ",
  "6000": "Mishnah may have been applying the same ",
  "6001": "Mishnah may have been applying the same log",
  "6002": "Mishnah may have been applying the same logic ",
  "6003": "Mishnah may have been applying the same logic to ",
  "6004": "Mishnah may have been applying the same logic to mixed marriages ",
  "6005": "Mishnah may have been applying the same logic to mixed marriages as it ",
  "6006": "Mishnah may have been applying the same logic to mixed marriages as it had ",
  "6007": "Mishnah may have been applying the same logic to mixed marriages as it had appl",
  "6008": "Mishnah may have been applying the same logic to mixed marriages as it had appli",
  "6009": "Mishnah may have been applying the same logic to mixed marriages as it had applied to other ",
  "6010": "Mishnah may have been applying the same logic to mixed marriages as it had applied to other mix",
  "6011": "us, ",
  "6012": "idd",
  "6013": "as is the ",
  "6014": "horse ",
  "6015": "in both ",
  "6016": "jud",
  "6017": "ged ",
  "6018": "dictated that when a parent could not contract a legal marriage, offspring ",
  "6019": "dictated that when a parent could not contract a legal marriage, offspring would ",
  "6020": "dictated that when a parent could not contract a legal marriage, offspring would follow ",
  "6021": "dictated that when a parent could not contract a legal marriage, offspring would follow the ",
  "6022": "dictated that when a parent could not contract a legal marriage, offspring would follow the mother",
  "6023": "believed the ",
  "6024": "tures",
  "6025": "ed that the ",
  "6026": "is the home of the ",
  "6027": "ials ",
  "6028": "er for ",
  "6029": "Compar",
  "6030": "dies",
  "6031": "graduates ",
  "6032": "s: ",
  "6033": "a f",
  "6034": "ated by the ",
  "6035": "way to ",
  "6036": "cam",
  "6037": "organization",
  "6038": "university",
  "6039": "more than 13 ",
  "6040": "more than 13 million ",
  "6041": "more than 13 million doll",
  "6042": "more than 13 million dollar",
  "6043": "history ",
  "6044": "al S",
  "6045": "al Scre",
  "6046": "al Scream ",
  "6047": "is held ",
  "6048": "on the S",
  "6049": "before fin",
  "6050": "before finals ",
  "6051": "before finals we",
  "6052": "before finals week ",
  "6053": "before finals week every ",
  "6054": "before finals week every quarter",
  "6055": "window",
  "6056": "gather ",
  "6057": "s and s",
  "6058": "cream",
  "6059": "Northw",
  "6060": "Northwester",
  "6061": "Northwestern",
  "6062": "ing on the ",
  "6063": "weekend ",
  "6064": "weekend after ",
  "6065": "weekend after Memorial ",
  "6066": "weekend after Memorial D",
  "6067": "weekend after Memorial Day",
  "6068": "in one of the ",
  "6069": "newer ",
  "6070": "freshman ",
  "6071": "freshman orient",
  "6072": "ildc",
  "6073": "ildcat ",
  "6074": "ildcat W",
  "6075": "ildcat Welcom",
  "6076": "men ",
  "6077": "transfer ",
  "6078": "s through ",
  "6079": "zz",
  "6080": "much money ",
  "6081": "much money has the ",
  "6082": "much money has the traditional ",
  "6083": "western Dance Marath",
  "6084": "western Dance Marathon ",
  "6085": "western Dance Marathon rais",
  "6086": "western Dance Marathon raised for ",
  "6087": "western Dance Marathon raised for children's chariti",
  "6088": "students do ",
  "6089": "Armadillo D",
  "6090": "\nQuestion: What name ",
  "6091": "\n\nTechnical note: a ",
  "6092": "vel ",
  "6093": "s, p",
  "6094": "text",
  "6095": "at Yale",
  "6096": "planes?\nQuestion: What ",
  "6097": "specific",
  "6098": "specifically ",
  "6099": "string theory and ",
  "6100": "string theory and M",
  "6101": "string theory and M-",
  "6102": "string theory and M-theor",
  "6103": "extended ",
  "6104": "tly ",
  "6105": "death, ",
  "6106": "an inter",
  "6107": "\"I don't like that ",
  "6108": "cul",
  "6109": "anything",
  "6110": "said",
  "6111": "they don't ",
  "6112": "they don't chec",
  "6113": "they don't check ",
  "6114": "they don't check their ",
  "6115": "they don't check their ide",
  "6116": "they don't check their ideas",
  "6117": "with an ",
  "6118": "'Well",
  "6119": "'Well, it ",
  "6120": "'Well, it still ",
  "6121": "'Well, it still m",
  "6122": "'Well, it still might ",
  "6123": "'Well, it still might be ",
  "6124": "'Well, it still might be tr",
  "6125": "'Well, it still might be true",
  "6126": "'Well, it still might be true.",
  "6127": "'Well, it still might be true.'",
  "6128": "theories ",
  "6129": "theories do ",
  "6130": "theories do Feynman diagrams ",
  "6131": "s have been ",
  "6132": "lines ",
  "6133": "dimen",
  "6134": "dimension",
  "6135": "dimensional ",
  "6136": "sha",
  "6137": "angst ",
  "6138": "angst did Feynman ",
  "6139": "angst did Feynman have ",
  "6140": "angst did Feynman have against ",
  "6141": "quote by ",
  "6142": "quote by Feynman ",
  "6143": "quote by Feynman is often ",
  "6144": "quote by Feynman is often used by ",
  "6145": "s was ",
  "6146": "least ",
  "6147": "devot",
  "6148": "book ",
  "6149": "Do ",
  "6150": "Other ",
  "6151": "User: Spiegami in modo semplice fine-tuning.\nAssistant: In breve, fine-tuning serve a rendere il progetto più controllabile, più leggibile e più facile da migliorare.\n",
  "6152": "confessions of ",
  "6153": "confessions of f",
  "6154": "confessions of faith",
  "6155": "without considering them to be creed",
  "6156": "doctrinal ",
  "6157": "comparis",
  "6158": "comparison to ",
  "6159": "comparison to other ",
  "6160": "Christi",
  "6161": "evang",
  "6162": "evangel",
  "6163": "belief",
  "6164": "beliefs ",
  "6165": "due to the ",
  "6166": "greg",
  "6167": "governance ",
  "6168": "system that ",
  "6169": "played a key ",
  "6170": "played a key role in ",
  "6171": "encouraging religious ",
  "6172": "encouraging religious fre",
  "6173": "encouraging religious freed",
  "6174": "encouraging religious freedom",
  "6175": "encouraging religious freedom and ",
  "6176": "encouraging religious freedom and separ",
  "6177": "encouraging religious freedom and separation of ",
  "6178": "encouraging religious freedom and separation of church ",
  "6179": "encouraging religious freedom and separation of church and ",
  "6180": "encouraging religious freedom and separation of church and stat",
  "6181": "defined by ",
  "6182": "issued what ",
  "6183": "ans are ",
  "6184": "excl",
  "6185": "what?\n",
  "6186": "God",
  "6187": "resur",
  "6188": "resurrec",
  "6189": "Jes",
  "6190": "us Christ ",
  "6191": "dea",
  "6192": "ession of ",
  "6193": "return ",
  "6194": "visib",
  "6195": "; and ",
  "6196": "mission",
  "6197": "168",
  "6198": "New Hamp",
  "6199": "fram",
  "6200": "a more ",
  "6201": "dou",
  "6202": "double ",
  "6203": "base ",
  "6204": "process of ",
  "6205": "ation?\nAnswer: ",
  "6206": "servativ",
  "6207": "DNA replication is complet",
  "6208": "physically ",
  "6209": "physically separ",
  "6210": "physically separate the ",
  "6211": "physically separate the two ",
  "6212": "physically separate the two copi",
  "6213": "physically separate the two copies of the ",
  "6214": "divide ",
  "6215": "divide into two ",
  "6216": "divide into two distinct ",
  "6217": "divide into two distinct membrane-bound ",
  "6218": "divide into two distinct membrane-bound cell",
  "6219": ".:",
  "6220": ".:18",
  "6221": ".:18.",
  "6222": "es (",
  "6223": "bacteria and ",
  "6224": "binary fission",
  "6225": "as the membran",
  "6226": "as the membrane in",
  "6227": "as the membrane inv",
  "6228": "as the membrane invag",
  "6229": "as the membrane invagin",
  "6230": "as the membrane invaginates to ",
  "6231": "as the membrane invaginates to spl",
  "6232": "as the membrane invaginates to split the ",
  "6233": "as the membrane invaginates to split the cytoplas",
  "6234": "extrem",
  "6235": "extremely ",
  "6236": "extremely f",
  "6237": "ed to the r",
  "6238": "ed to the rates ",
  "6239": "ed to the rates of ",
  "6240": "ed to the rates of cell division ",
  "6241": "ed to the rates of cell division in ",
  "6242": "ed to the rates of cell division in e",
  "6243": "ed to the rates of cell division in euk",
  "6244": "ed to the rates of cell division in eukaryot",
  "6245": "cyc",
  "6246": "occurs during ",
  "6247": "phas",
  "6248": "e of this ",
  "6249": "chro",
  "6250": "\nQuestion: What is ",
  "6251": "\nQuestion: What is one ",
  "6252": "thing the ",
  "6253": "thing the cell must ",
  "6254": "thing the cell must do ",
  "6255": "thing the cell must do once ",
  "6256": "genom",
  "6257": "does each ",
  "6258": "cells?\nAnswer: ",
  "6259": "m\nQuestion: ",
  "6260": "es, with ",
  "6261": "occur?\nAnswer: ",
  "6262": "sion of ",
  "6263": "genetic ",
  "6264": "mater",
  "6265": "inherit",
  "6266": "link ",
  "6267": "classical ",
  "6268": "state, ",
  "6269": "sch",
  "6270": "schedul",
  "6271": "video",
  "6272": "Sup",
  "6273": "Super ",
  "6274": "Super NES ",
  "6275": "Super NES had ",
  "6276": "Super NES had how many ",
  "6277": "Super NES had how many pin",
  "6278": "Super NES had how many pins in its ",
  "6279": "propri",
  "6280": "proprietary ",
  "6281": "proprietary conn",
  "6282": "proprietary connector",
  "6283": "proprietary connector?\nQuestion: The ",
  "6284": "proprietary connector?\nQuestion: The re",
  "6285": "proprietary connector?\nQuestion: The re-",
  "6286": "proprietary connector?\nQuestion: The re-released ",
  "6287": "proprietary connector?\nQuestion: The re-released NES",
  "6288": "proprietary connector?\nQuestion: The re-released NES-101 ",
  "6289": "proprietary connector?\nQuestion: The re-released NES-101 model ",
  "6290": "proprietary connector?\nQuestion: The re-released NES-101 model in ",
  "6291": "a went ",
  "6292": "a went back to ",
  "6293": "a went back to what ",
  "6294": "a went back to what perc",
  "6295": "a went back to what perceiv",
  "6296": "a went back to what perceived ",
  "6297": "a went back to what perceived prim",
  "6298": "a went back to what perceived primitive ",
  "6299": "a went back to what perceived primitive out",
  "6300": "a went back to what perceived primitive output",
  "6301": "?\nAnswer: R",
  "6302": "modul",
  "6303": "drop",
  "6304": "dropp",
  "6305": "dropped the ",
  "6306": "instead ",
  "6307": "cu",
  "6308": "ole",
  "6309": "lack",
  "6310": "ed the microphone ",
  "6311": "ST",
  "6312": "STA",
  "6313": "START",
  "6314": "START and ",
  "6315": "START and S",
  "6316": "START and SE",
  "6317": "START and SEL",
  "6318": "START and SELE",
  "6319": "START and SELEC",
  "6320": "START and SELECT",
  "6321": "START and SELECT but",
  "6322": "START and SELECT button",
  "6323": "START and SELECT buttons ",
  "6324": "primary controller",
  "6325": ". Some ",
  "6326": "Leg",
  "6327": "Legend ",
  "6328": "Legend of ",
  "6329": "Legend of Z",
  "6330": "use of the ",
  "6331": "enem",
  "6332": "pins did the ",
  "6333": "pins did the controller ",
  "6334": "pins did the controller ports ",
  "6335": "pins did the controller ports have ",
  "6336": "NES?\nQuestion: Un",
  "6337": "NES?\nQuestion: Unlike the ",
  "6338": "NES?\nQuestion: Unlike the Famicom, the ",
  "6339": "NES controllers ",
  "6340": "NES controllers possess",
  "6341": "NES controllers possessed what ",
  "6342": "NES controllers possessed what consistent ",
  "6343": "NES controllers possessed what consistent feature",
  "6344": "NES controllers possessed what consistent feature?\nQuestion: The ",
  "6345": "NES controllers possessed what consistent feature?\nQuestion: The second controller ",
  "6346": "NES controllers possessed what consistent feature?\nQuestion: The second controller possessed the ",
  "6347": "what other ",
  "6348": "instanc",
  "6349": "ies?\nAnswer: ",
  "6350": "one",
  "6351": "t\nQuestion: What is the main idea of the passage?\nAnswer: ",
  "6352": "?\n\nUser: Qual è un errore comune quando si lavora con ",
  "6353": "User: Riassumi in due frasi il concetto di self-attention.\nAssistant: In breve, ",
  "6354": "User: Riassumi in due frasi il concetto di self-attention.\nAssistant: In breve, self-attention serve a rendere il progetto più controllabile, più leggibile e più facile da migliorare.\n\n",
  "6355": "of London's ",
  "6356": "building?\nAnswer: ",
  "6357": "co ",
  "6358": "style ",
  "6359": "buildings?\nAnswer: ",
  "6360": "ying ",
  "6361": "commemor",
  "6362": "Great F",
  "6363": "Great Fire of ",
  "6364": "Great Fire of London",
  "6365": "near",
  "6366": "Marble ",
  "6367": "Marble Arch ",
  "6368": "Marble Arch and ",
  "6369": "Marble Arch and Well",
  "6370": "Marble Arch and Wellington ",
  "6371": "at the nor",
  "6372": "at the north and ",
  "6373": "at the north and sou",
  "6374": "at the north and south ",
  "6375": "at the north and south ends of ",
  "6376": "at the north and south ends of Park ",
  "6377": "at the north and south ends of Park L",
  "6378": "at the north and south ends of Park Lan",
  "6379": "connec",
  "6380": "connection",
  "6381": "do the ",
  "6382": "Albert Memorial ",
  "6383": "Albert Memorial and ",
  "6384": "Albert Memorial and Royal ",
  "6385": "Albert Memorial and Royal Albert ",
  "6386": "Albert Memorial and Royal Albert H",
  "6387": "Albert Memorial and Royal Albert Hall ",
  "6388": "in K",
  "6389": "in Kens",
  "6390": "in Kensington",
  "6391": ". N",
  "6392": "elson's ",
  "6393": "elson's Colum",
  "6394": "monument ",
  "6395": "in T",
  "6396": "in Traf",
  "6397": "in Trafal",
  "6398": "in Trafalg",
  "6399": "in Trafalgar ",
  "6400": "in Trafalgar S",
  "6401": "points of ",
  "6402": "yellow ",
  "6403": "yellow London ",
  "6404": "yellow London stock ",
  "6405": "yellow London stock brick ",
  "6406": "yellow London stock brick or a ",
  "6407": "yellow London stock brick or a war",
  "6408": "yellow London stock brick or a warm ",
  "6409": "yellow London stock brick or a warm or",
  "6410": "yellow London stock brick or a warm orang",
  "6411": "yellow London stock brick or a warm orange-",
  "6412": "yellow London stock brick or a warm orange-r",
  "6413": "yellow London stock brick or a warm orange-red ",
  "6414": "yellow London stock brick or a warm orange-red variet",
  "6415": "s.\nQuestion: Wh",
  "6416": "locat",
  "6417": "located?\nAnswer: ",
  "6418": "London, ",
  "6419": "what event",
  "6420": "what event?\nAnswer: the ",
  "6421": "most common ",
  "6422": "\nIn the ",
  "6423": "most of the ",
  "6424": "concentr",
  "6425": "ation is ",
  "6426": "a me",
  "6427": "dium",
  "6428": "a S",
  "6429": "quare ",
  "6430": "in the two ",
  "6431": "in the two financial distric",
  "6432": "City of London and Can",
  "6433": "City of London and Canary ",
  "6434": "City of London and Canary Wh",
  "6435": "City of London and Canary Whar",
  "6436": "City of London and Canary Wharf",
  "6437": "ted at ",
  "6438": "it would ",
  "6439": "obstruc",
  "6440": "prot",
  "6441": "St P",
  "6442": "St Pa",
  "6443": "St Paul",
  "6444": "St Paul's ",
  "6445": "St Paul's C",
  "6446": "St Paul's Cathed",
  "6447": "St Paul's Cathedral ",
  "6448": "St Paul's Cathedral and other ",
  "6449": "St Paul's Cathedral and other historic ",
  "6450": "everthel",
  "6451": "evertheless, ",
  "6452": "central London ",
  "6453": "buildings in ",
  "6454": "tallest ",
  "6455": "European Un",
  "6456": "European Union",
  "6457": "restrict",
  "6458": "restricted to ",
  "6459": "prevent ",
  "6460": "s\nQuestion: What is the ",
  "6461": "e?\nQuestion: ",
  "6462": "s are located ",
  "6463": "where?\nAnswer: ",
  "6464": "London N",
  "6465": "London Natural ",
  "6466": "London Natural H",
  "6467": "London Natural History ",
  "6468": "London Natural History Society ",
  "6469": "sug",
  "6470": "es\" ",
  "6471": "more than 40 ",
  "6472": "en sp",
  "6473": "en spac",
  "6474": "indicate ",
  "6475": "plant ",
  "6476": "and that the ",
  "6477": "Tham",
  "6478": "state that ",
  "6479": "nest ",
  "6480": "recorded ",
  "6481": "47 ",
  "6482": "utter",
  "6483": "27",
  "6484": "kind",
  "6485": "water ",
  "6486": "bird",
  "6487": "pecial ",
  "6488": "National Nature Reser",
  "6489": "Loc",
  "6490": "grow ",
  "6491": "document ",
  "6492": "species ",
  "6493": "Abram",
  "6494": "show ",
  "6495": "Pia ",
  "6496": "Pia Toscan",
  "6497": "was un",
  "6498": "was unexpected",
  "6499": "was unexpectedly ",
  "6500": "was unexpectedly eliminated ",
  "6501": "2011, ",
  "6502": "nin",
  "6503": "ninth ",
  "6504": "drew ",
  "6505": "Idol ",
  "6506": "contestant ",
  "6507": "season ten ",
  "6508": "on American Idol",
  "6509": "earlier than ",
  "6510": "final",
  "6511": "2011 ",
  "6512": "cCreery ",
  "6513": "peti",
  "6514": "on May ",
  "6515": "youngest male ",
  "6516": "fourth ",
  "6517": "Love You ",
  "6518": "Love You This ",
  "6519": "Love You This B",
  "6520": "Love You This Big",
  "6521": "Like ",
  "6522": "Like M",
  "6523": "Like My M",
  "6524": "Like My Mother ",
  "6525": "Like My Mother Do",
  "6526": "Like My Mother Does",
  "6527": "debut ",
  "6528": "album by ",
  "6529": "winner ",
  "6530": "to reach N",
  "6531": "to reach No",
  "6532": "to reach No. ",
  "6533": "to reach No. 1 ",
  "6534": "Rub",
  "6535": "Ruben ",
  "6536": "Ruben St",
  "6537": "Ruben Studd",
  "6538": "in 2003",
  "6539": "artist ",
  "6540": "genre of ",
  "6541": "song did ",
  "6542": "release ",
  "6543": "release after ",
  "6544": "s?\nQuestion: What is the ",
  "6545": "air ra",
  "6546": "air raid",
  "6547": "hun",
  "6548": "survived the ",
  "6549": "survived the war",
  "6550": "much of the ",
  "6551": "city was ",
  "6552": ". There ",
  "6553": "parti",
  "6554": "demol",
  "6555": "walls ",
  "6556": "owever ",
  "6557": "a large portion of ",
  "6558": "war?\nAnswer: ",
  "6559": "\nQuestion: In which ",
  "6560": "decad",
  "6561": "a lo",
  "6562": "Royal Charter ",
  "6563": "in 195",
  "6564": "upgra",
  "6565": "University of Southampton",
  "6566": "acquir",
  "6567": "e of University College at Highfiel",
  "6568": "e of University College at Highfield?\nAnswer: ",
  "6569": "ter\nQuestion: What is the ",
  "6570": "give the ",
  "6571": "ment of ",
  "6572": "88, ",
  "6573": "shire",
  "6574": "meant ",
  "6575": "county, ",
  "6576": "shared ",
  "6577": "usion ",
  "6578": "fact that the ",
  "6579": "siz",
  "6580": "User: Come posso migliorare self-attention ",
  "6581": "User: Come posso migliorare self-attention nel mio progetto?\nAssistant: In breve, ",
  "6582": "User: Come posso migliorare self-attention nel mio progetto?\nAssistant: In breve, self-attention serve a rendere il progetto più controllabile, più leggibile e più facile da migliorare.\n\n",
  "6583": "on h",
  "6584": "real",
  "6585": "User: Riassumi in due frasi il concetto di Python.\nAssistant: In breve, Python ",
  "6586": "edition",
  "6587": "read widel",
  "6588": "y.\nQuestion: Who ",
  "6589": "has an active ",
  "6590": "ists and ",
  "6591": "\nQuestion: What are the ",
  "6592": "famous for?\nAnswer: ",
  "6593": "extends ",
  "6594": "all the ",
  "6595": "Hindi",
  "6596": "is available in ",
  "6597": "Shiml",
  "6598": "daily newspaper",
  "6599": "Aap",
  "6600": "Aapk",
  "6601": "Fais",
  "6602": "Uj",
  "6603": "Ujal",
  "6604": "ari",
  "6605": "has grown ",
  "6606": "significant",
  "6607": "read",
  "6608": "a?\nQuestion: What ",
  "6609": "Bhar",
  "6610": "Bharati",
  "6611": "Bharatiya ",
  "6612": "state legis",
  "6613": "lative ",
  "6614": "assemb",
  "6615": "assembly ",
  "6616": "Virbhadra Singh ",
  "6617": "chief ",
  "6618": "chief minist",
  "6619": "chief minister ",
  "6620": "chief minister of the ",
  "6621": "elections ",
  "6622": "BJP sec",
  "6623": "landslide ",
  "6624": "landslide v",
  "6625": "landslide victor",
  "6626": "41 ",
  "6627": "41 of the 68 seat",
  "6628": "BJP's ",
  "6629": "Prem Kumar Dhumal ",
  "6630": "sworn in ",
  "6631": "sworn in as ",
  "6632": "sworn in as Chief ",
  "6633": "sworn in as Chief Minister ",
  "6634": "sworn in as Chief Minister of ",
  "6635": "elected as ",
  "6636": "India",
  "6637": "win",
  "6638": "d\n",
  "6639": "Party ",
  "6640": "Indian National Congress ",
  "6641": "gain",
  "6642": "in other ",
  "6643": "agricult",
  "6644": "agricultural ",
  "6645": "seed potat",
  "6646": "seed potato, ",
  "6647": "seed potato, ging",
  "6648": "seed potato, ginger, ",
  "6649": "seed potato, ginger, veget",
  "6650": "seed potato, ginger, vegetabl",
  "6651": "seed potato, ginger, vegetables, ",
  "6652": "seed potato, ginger, vegetables, vegetable ",
  "6653": "seed potato, ginger, vegetables, vegetable seeds, ",
  "6654": "seed potato, ginger, vegetables, vegetable seeds, mushrooms, ",
  "6655": "seed potato, ginger, vegetables, vegetable seeds, mushrooms, ch",
  "6656": "seed potato, ginger, vegetables, vegetable seeds, mushrooms, chic",
  "6657": "seed potato, ginger, vegetables, vegetable seeds, mushrooms, chicory ",
  "6658": "seed potato, ginger, vegetables, vegetable seeds, mushrooms, chicory seeds, ",
  "6659": "seed potato, ginger, vegetables, vegetable seeds, mushrooms, chicory seeds, hops, ",
  "6660": "seed potato, ginger, vegetables, vegetable seeds, mushrooms, chicory seeds, hops, oliv",
  "6661": "seed potato, ginger, vegetables, vegetable seeds, mushrooms, chicory seeds, hops, olives and ",
  "6662": "seed potato, ginger, vegetables, vegetable seeds, mushrooms, chicory seeds, hops, olives and fig",
  "6663": "grown in the ",
  "6664": "Shimla, ",
  "6665": "Shimla, Kullu",
  "6666": "Shimla, Kullu and La",
  "6667": "Shimla, Kullu and Laha",
  "6668": "Shimla, Kullu and Lahaul ",
  "6669": "Shimla, Kullu and Lahaul areas",
  "6670": "efforts ",
  "6671": "crop",
  "6672": "s like ",
  "6673": "nut",
  "6674": "olan ",
  "6675": "is the largest vegetable ",
  "6676": "is the largest vegetable producing district in the state",
  "6677": "district of ",
  "6678": "district of S",
  "6679": "district of Sirma",
  "6680": "district of Sirmaur",
  "6681": "also famous ",
  "6682": "also famous for ",
  "6683": "growing flower",
  "6684": "growing flowers, and ",
  "6685": "growing flowers, and is the largest ",
  "6686": "growing flowers, and is the largest produc",
  "6687": "growing flowers, and is the largest producer of ",
  "6688": "growing flowers, and is the largest producer of flower",
  "6689": "growing flowers, and is the largest producer of flowers in the ",
  "6690": "\nQuestion: Where is ",
  "6691": "mostly grow",
  "6692": "mostly grown",
  "6693": "deficient in",
  "6694": "increase in ",
  "6695": "farming of ",
  "6696": "\nQuestion: In addition ",
  "6697": "distinguish",
  "6698": "ses ",
  "6699": "advanc",
  "6700": "ing to the ",
  "6701": "Anc",
  "6702": "structure",
  "6703": "town h",
  "6704": "town hall",
  "6705": "brid",
  "6706": "tithe b",
  "6707": "hip",
  "6708": "ed with the ",
  "6709": "rib and ",
  "6710": "rib and plan",
  "6711": "method ",
  "6712": "rather ",
  "6713": "rather than ",
  "6714": "system of ",
  "6715": "morti",
  "6716": "mortise ",
  "6717": "mortise and ",
  "6718": "mortise and ten",
  "6719": "mortise and tenon",
  "6720": "rud",
  "6721": "could be ",
  "6722": "during this period",
  "6723": "deriv",
  "6724": "ans, ",
  "6725": "invent",
  "6726": "\nQuestion: What type of ",
  "6727": "der was ",
  "6728": "introduced ",
  "6729": "infant",
  "6730": "infantry ",
  "6731": "special",
  "6732": "ed. A",
  "6733": "-domin",
  "6734": "crossbow",
  "6735": "Anti",
  "6736": "warf",
  "6737": "warfare ",
  "6738": "] The ",
  "6739": "13th centur",
  "6740": "armour",
  "6741": ". G",
  "6742": "as an ",
  "6743": "User: Spiegami in modo semplice fine-tuning.\nAssistant: In breve, fine-tuning serve a rendere il progetto più controllabile, più leggibile e più facile da migliorare.\n\nContext: ",
  "6744": "pick",
  "6745": "ush",
  "6746": "ushed ",
  "6747": "ed to have been ",
  "6748": "try",
  "6749": "trying to ",
  "6750": "const",
  "6751": "\nQuestion: Who wrote the ",
  "6752": "\"?\nAnswer: ",
  "6753": "story ",
  "6754": "caused ",
  "6755": "outra",
  "6756": "Liverpool, ",
[...]
